{
  "[PAD]": 0,
  "[UNK]": 1,
  "[BOS]": 2,
  "[EOS]": 3,
  "\t": 4,
  "\n": 5,
  "\f": 6,
  "\r": 7,
  " ": 8,
  "!": 9,
  "\"": 10,
  "#": 11,
  "$": 12,
  "%": 13,
  "&": 14,
  "'": 15,
  "(": 16,
  ")": 17,
  "*": 18,
  "+": 19,
  ",": 20,
  "-": 21,
  ".": 22,
  "/": 23,
  "0": 24,
  "1": 25,
  "2": 26,
  "3": 27,
  "4": 28,
  "5": 29,
  "6": 30,
  "7": 31,
  "8": 32,
  "9": 33,
  ":": 34,
  ";": 35,
  "<": 36,
  "=": 37,
  ">": 38,
  "?": 39,
  "@": 40,
  "A": 41,
  "B": 42,
  "C": 43,
  "D": 44,
  "E": 45,
  "F": 46,
  "G": 47,
  "H": 48,
  "I": 49,
  "J": 50,
  "K": 51,
  "L": 52,
  "M": 53,
  "N": 54,
  "O": 55,
  "P": 56,
  "Q": 57,
  "R": 58,
  "S": 59,
  "T": 60,
  "U": 61,
  "V": 62,
  "W": 63,
  "X": 64,
  "Y": 65,
  "Z": 66,
  "[": 67,
  "\\": 68,
  "]": 69,
  "^": 70,
  "_": 71,
  "`": 72,
  "a": 73,
  "b": 74,
  "c": 75,
  "d": 76,
  "e": 77,
  "f": 78,
  "g": 79,
  "h": 80,
  "i": 81,
  "j": 82,
  "k": 83,
  "l": 84,
  "m": 85,
  "n": 86,
  "o": 87,
  "p": 88,
  "q": 89,
  "r": 90,
  "s": 91,
  "t": 92,
  "u": 93,
  "v": 94,
  "w": 95,
  "x": 96,
  "y": 97,
  "z": 98,
  "{": 99,
  "|": 100,
  "}": 101,
  "~": 102,
  "�": 103,
  " t": 104,
  "he": 105,
  " a": 106,
  " i": 107,
  " the": 108,
  "  ": 109,
  "re": 110,
  " s": 111,
  " c": 112,
  "in": 113,
  "er": 114,
  "on": 115,
  "or": 116,
  "at": 117,
  " p": 118,
  "le": 119,
  " is": 120,
  " b": 121,
  " w": 122,
  " m": 123,
  " f": 124,
  " e": 125,
  "ut": 126,
  "it": 127,
  " o": 128,
  " in": 129,
  "es": 130,
  "en": 131,
  "    ": 132,
  " n": 133,
  "al": 134,
  " (": 135,
  " an": 136,
  "ro": 137,
  " th": 138,
  " to": 139,
  " d": 140,
  "ion": 141,
  "an": 142,
  "ing": 143,
  "ac": 144,
  "ed": 145,
  "st": 146,
  " of": 147,
  " =": 148,
  "ar": 149,
  "um": 150,
  " and": 151,
  " 1": 152,
  "ic": 153,
  " co": 154,
  " S": 155,
  "se": 156,
  " +": 157,
  "ct": 158,
  " be": 159,
  " -": 160,
  "'s": 161,
  " for": 162,
  "ve": 163,
  "ent": 164,
  "mp": 165,
  " h": 166,
  " re": 167,
  "ou": 168,
  "The": 169,
  "ot": 170,
  "is": 171,
  " l": 172,
  " So": 173,
  " 2": 174,
  "et": 175,
  " that": 176,
  "ig": 177,
  "ach": 178,
  "im": 179,
  " st": 180,
  "ly": 181,
  "But": 182,
  "de": 183,
  "qu": 184,
  "ce": 185,
  "os": 186,
  "ll": 187,
  "ay": 188,
  " \\": 189,
  "ble": 190,
  " are": 191,
  "ow": 192,
  "$$": 193,
  " g": 194,
  "ir": 195,
  "ter": 196,
  "as": 197,
  " The": 198,
  "ld": 199,
  "nt": 200,
  " con": 201,
  " u": 202,
  " x": 203,
  " pro": 204,
  "   ": 205,
  "\n    ": 206,
  " each": 207,
  " if": 208,
  " can": 209,
  ").": 210,
  " v": 211,
  " ex": 212,
  "ation": 213,
  "si": 214,
  " le": 215,
  " so": 216,
  " 0": 217,
  "ment": 218,
  " on": 219,
  " di": 220,
  " this": 221,
  " pos": 222,
  " r": 223,
  " su": 224,
  "),": 225,
  " wh": 226,
  " k": 227,
  " or": 228,
  " we": 229,
  "ith": 230,
  " y": 231,
  " ne": 232,
  " A": 233,
  "pp": 234,
  "ur": 235,
  " whe": 236,
  " mo": 237,
  "ait": 238,
  "ich": 239,
  " I": 240,
  " se": 241,
  "ive": 242,
  " as": 243,
  " sum": 244,
  "mple": 245,
  "id": 246,
  "ould": 247,
  " 3": 248,
  "igh": 249,
  " all": 250,
  " with": 251,
  " ma": 252,
  " it": 253,
  " B": 254,
  "ps": 255,
  "For": 256,
  " not": 257,
  "her": 258,
  " But": 259,
  "ul": 260,
  " but": 261,
  "ber": 262,
  "rom": 263,
  "Wait": 264,
  "int": 265,
  " num": 266,
  "ight": 267,
  " then": 268,
  " which": 269,
  "ver": 270,
  "ate": 271,
  " C": 272,
  "ge": 273,
  " L": 274,
  " per": 275,
  "$$$": 276,
  " would": 277,
  " number": 278,
  "am": 279,
  "ample": 280,
  "rent": 281,
  "tion": 282,
  " ch": 283,
  "art": 284,
  "00": 285,
  "ff": 286,
  " at": 287,
  " from": 288,
  " no": 289,
  " by": 290,
  "us": 291,
  " ele": 292,
  "So": 293,
  "ain": 294,
  "ition": 295,
  "th": 296,
  " comp": 297,
  "rect": 298,
  "sible": 299,
  " tr": 300,
  " int": 301,
  "ad": 302,
  "iv": 303,
  "\n        ": 304,
  "ck": 305,
  " <": 306,
  " app": 307,
  " For": 308,
  "ch": 309,
  "ces": 310,
  "res": 311,
  "ative": 312,
  "ave": 313,
  "ust": 314,
  "irst": 315,
  "Th": 316,
  "ase": 317,
  " de": 318,
  " 4": 319,
  "ore": 320,
  " \\(": 321,
  " possible": 322,
  "il": 323,
  " *": 324,
  "blem": 325,
  "ute": 326,
  " max": 327,
  " op": 328,
  "nd": 329,
  " element": 330,
  "ince": 331,
  "put": 332,
  " problem": 333,
  "wer": 334,
  "tern": 335,
  "\n\n": 336,
  "ref": 337,
  " have": 338,
  "ha": 339,
  "be": 340,
  " me": 341,
  " >": 342,
  "swer": 343,
  " sp": 344,
  " example": 345,
  "ial": 346,
  " ste": 347,
  " tw": 348,
  " H": 349,
  "est": 350,
  " appro": 351,
  " min": 352,
  "ity": 353,
  " D": 354,
  " qu": 355,
  "ke": 356,
  " first": 357,
  " answer": 358,
  " Let": 359,
  " ro": 360,
  "om": 361,
  " must": 362,
  " he": 363,
  " two": 364,
  " equ": 365,
  "orrect": 366,
  " where": 367,
  " code": 368,
  " j": 369,
  "dd": 370,
  " [": 371,
  " when": 372,
  " ar": 373,
  "lo": 374,
  " may": 375,
  "ltern": 376,
  " sub": 377,
  "der": 378,
  "ree": 379,
  " need": 380,
  "ffe": 381,
  "erm": 382,
  "au": 383,
  " →": 384,
  "ind": 385,
  "heck": 386,
  " Then": 387,
  "haps": 388,
  "lternative": 389,
  " po": 390,
  "ime": 391,
  " 5": 392,
  "urrent": 393,
  "ist": 394,
  "ue": 395,
  " pa": 396,
  " approach": 397,
  " cou": 398,
  "ip": 399,
  " val": 400,
  "if": 401,
  "cess": 402,
  " inc": 403,
  "rou": 404,
  " Wait": 405,
  "iz": 406,
  " O": 407,
  "\n       ": 408,
  "act": 409,
  "ause": 410,
  "imum": 411,
  " perhaps": 412,
  " there": 413,
  "ame": 414,
  "ther": 415,
  " al": 416,
  "refore": 417,
  " arr": 418,
  "ra": 419,
  "cause": 420,
  " has": 421,
  "inal": 422,
  " case": 423,
  "lternatively": 424,
  " how": 425,
  "bo": 426,
  "red": 427,
  "ang": 428,
  " out": 429,
  " cont": 430,
  " N": 431,
  " ed": 432,
  "..": 433,
  "ine": 434,
  "ack": 435,
  " $$$": 436,
  " M": 437,
  "\n\n  ": 438,
  "uct": 439,
  "ution": 440,
  "'t": 441,
  "ink": 442,
  " correct": 443,
  " If": 444,
  " elements": 445,
  " one": 446,
  "ult": 447,
  " current": 448,
  "ft": 449,
  "les": 450,
  " z": 451,
  "ond": 452,
  "ri": 453,
  " maybe": 454,
  " check": 455,
  " giv": 456,
  " \n": 457,
  " position": 458,
  " sol": 459,
  "end": 460,
  " {": 461,
  " /": 462,
  "and": 463,
  " E": 464,
  " up": 465,
  " P": 466,
  " ev": 467,
  " str": 468,
  " part": 469,
  " bet": 470,
  "fter": 471,
  "\n   ": 472,
  " maximum": 473,
  " point": 474,
  " do": 475,
  "ies": 476,
  " us": 477,
  "ol": 478,
  "10": 479,
  " ac": 480,
  "ect": 481,
  " diffe": 482,
  " compute": 483,
  " any": 484,
  "qr": 485,
  " '": 486,
  " rem": 487,
  "qrt": 488,
  " pl": 489,
  "val": 490,
  "Alternatively": 491,
  "tal": 492,
  " col": 493,
  ")/": 494,
  "``": 495,
  " such": 496,
  "we": 497,
  "ong": 498,
  " add": 499,
  "ose": 500,
  "ure": 501,
  " pair": 502,
  " process": 503,
  "ert": 504,
  " you": 505,
  "its": 506,
  " same": 507,
  " find": 508,
  " exp": 509,
  " array": 510,
  " 6": 511,
  "\n            ": 512,
  "xt": 513,
  "ng": 514,
  "lu": 515,
  " som": 516,
  " form": 517,
  " right": 518,
  "ers": 519,
  " mod": 520,
  "ween": 521,
  "mm": 522,
  " W": 523,
  " inter": 524,
  " T": 525,
  "all": 526,
  "iginal": 527,
  "ant": 528,
  " their": 529,
  "ard": 530,
  "imal": 531,
  " between": 532,
  " time": 533,
  " term": 534,
  " option": 535,
  "ations": 536,
  " >=": 537,
  " un": 538,
  " even": 539,
  " count": 540,
  "ates": 541,
  "ord": 542,
  "ical": 543,
  "ill": 544,
  " sh": 545,
  "ix": 546,
  "em": 547,
  " R": 548,
  " other": 549,
  "eg": 550,
  " since": 551,
  "ath": 552,
  "ort": 553,
  " after": 554,
  " \"": 555,
  "Thus": 556,
  "able": 557,
  " en": 558,
  "ngth": 559,
  " pre": 560,
  "ast": 561,
  " total": 562,
  "li": 563,
  " Therefore": 564,
  " let": 565,
  " steps": 566,
  "sum": 567,
  " set": 568,
  "**": 569,
  " solution": 570,
  "ays": 571,
  "ren": 572,
  "ors": 573,
  "rac": 574,
  "ance": 575,
  " than": 576,
  "ange": 577,
  "_{": 578,
  "\n           ": 579,
  " <=": 580,
  "ma": 581,
  " dist": 582,
  " }": 583,
  " they": 584,
  "un": 585,
  " original": 586,
  "ges": 587,
  " left": 588,
  "ence": 589,
  "ction": 590,
  " ve": 591,
  " into": 592,
  "This": 593,
  " step": 594,
  " output": 595,
  " bot": 596,
  "ans": 597,
  " order": 598,
  "qui": 599,
  " node": 600,
  "^{": 601,
  " start": 602,
  " char": 603,
  "ace": 604,
  "cond": 605,
  ");": 606,
  "].": 607,
  "erg": 608,
  " different": 609,
  "other": 610,
  " given": 611,
  "ated": 612,
  "gh": 613,
  " some": 614,
  " consi": 615,
  " abo": 616,
  " think": 617,
  " 10": 618,
  " sample": 619,
  " requi": 620,
  " only": 621,
  " grou": 622,
  " 9": 623,
  " pr": 624,
  " new": 625,
  " div": 626,
  "ecause": 627,
  " here": 628,
  "ero": 629,
  "ass": 630,
  "ap": 631,
  " const": 632,
  "ultip": 633,
  " path": 634,
  " way": 635,
  "ie": 636,
  "duct": 637,
  "itial": 638,
  " lo": 639,
  "ell": 640,
  " \\)": 641,
  " length": 642,
  "omp": 643,
  "}{": 644,
  "des": 645,
  " mat": 646,
  " does": 647,
  " integ": 648,
  " lar": 649,
  "frac": 650,
  "12": 651,
  " F": 652,
  " both": 653,
  "our": 654,
  "ous": 655,
  " equal": 656,
  "ite": 657,
  "ary": 658,
  " Because": 659,
  ")^": 660,
  " numbers": 661,
  "ize": 662,
  " state": 663,
  "onent": 664,
  " input": 665,
  "for": 666,
  "ases": 667,
  " test": 668,
  " res": 669,
  "imes": 670,
  "ide": 671,
  " |": 672,
  " 8": 673,
  " minimal": 674,
  " )": 675,
  "ta": 676,
  "gment": 677,
  "\n\n    ": 678,
  " non": 679,
  " about": 680,
  "ild": 681,
  "ss": 682,
  " multip": 683,
  "ress": 684,
  " remain": 685,
  "rib": 686,
  " ang": 687,
  "pe": 688,
  " second": 689,
  " ta": 690,
  "ever": 691,
  " 7": 692,
  " How": 693,
  " direct": 694,
  " dig": 695,
  " over": 696,
  "hich": 697,
  " li": 698,
  "ient": 699,
  " options": 700,
  " line": 701,
  " list": 702,
  "],": 703,
  "*(": 704,
  "ving": 705,
  " might": 706,
  " edges": 707,
  "ab": 708,
  " zero": 709,
  " spe": 710,
  "lect": 711,
  "lic": 712,
  " cell": 713,
  "))": 714,
  "11": 715,
  "\n\n   ": 716,
  " sqrt": 717,
  " these": 718,
  " sm": 719,
  " segment": 720,
  " wor": 721,
  " dep": 722,
  "so": 723,
  " sort": 724,
  "urn": 725,
  "ffic": 726,
  "ign": 727,
  " **": 728,
  " them": 729,
  "):": 730,
  " prev": 731,
  "op": 732,
  "od": 733,
  " value": 734,
  " row": 735,
  " equation": 736,
  "cle": 737,
  " inclu": 738,
  "ctor": 739,
  " oper": 740,
  "ari": 741,
  " X": 742,
  "del": 743,
  " interval": 744,
  "estion": 745,
  " G": 746,
  ")=": 747,
  " allow": 748,
  " string": 749,
  " question": 750,
  " because": 751,
  " quer": 752,
  "][": 753,
  " next": 754,
  " pairs": 755,
  "ens": 756,
  "ual": 757,
  "com": 758,
  "```": 759,
  " However": 760,
  "ric": 761,
  "20": 762,
  " end": 763,
  "ilar": 764,
  "imilar": 765,
  "ints": 766,
  " gen": 767,
  "qua": 768,
  "set": 769,
  " product": 770,
  "ves": 771,
  "max": 772,
  "ues": 773,
  "ound": 774,
  " initial": 775,
  " like": 776,
  "gain": 777,
  " more": 778,
  " work": 779,
  " acc": 780,
  " group": 781,
  "lse": 782,
  " should": 783,
  "fficient": 784,
  "lock": 785,
  "ag": 786,
  " trans": 787,
  "resent": 788,
  "ergy": 789,
  "sqrt": 790,
  " wait": 791,
  " three": 792,
  "ased": 793,
  " incre": 794,
  "lit": 795,
  "99": 796,
  " fo": 797,
  " will": 798,
  " squa": 799,
  "ompute": 800,
  " consider": 801,
  " cho": 802,
  " points": 803,
  "itive": 804,
  "ating": 805,
  "angle": 806,
  " det": 807,
  "te": 808,
  " vert": 809,
  "Let": 810,
  "ower": 811,
  "000": 812,
  "ron": 813,
  " ad": 814,
  " terms": 815,
  " edge": 816,
  " again": 817,
  " valid": 818,
  " ==": 819,
  " sy": 820,
  "ater": 821,
  " model": 822,
  "\\)": 823,
  "        ": 824,
  "acter": 825,
  "...": 826,
  " its": 827,
  " cond": 828,
  " energy": 829,
  " positions": 830,
  "rence": 831,
  " nodes": 832,
  "since": 833,
  "ible": 834,
  " Y": 835,
  " sequ": 836,
  "cul": 837,
  " tree": 838,
  " long": 839,
  "unction": 840,
  " elect": 841,
  " com": 842,
  " using": 843,
  " ph": 844,
  "ices": 845,
  "refix": 846,
  "16": 847,
  " becom": 848,
  " see": 849,
  " root": 850,
  " character": 851,
  " condition": 852,
  "ator": 853,
  " gener": 854,
  "\n\n            ": 855,
  "umn": 856,
  " could": 857,
  "In": 858,
  "Therefore": 859,
  " imp": 860,
  " larg": 861,
  " q": 862,
  "king": 863,
  " (-": 864,
  " sorted": 865,
  "pt": 866,
  " act": 867,
  " Since": 868,
  "ious": 869,
  "25": 870,
  " get": 871,
  " rep": 872,
  "ording": 873,
  "hes": 874,
  " In": 875,
  "15": 876,
  " function": 877,
  " use": 878,
  " adj": 879,
  " contrib": 880,
  " distance": 881,
  " angle": 882,
  " ke": 883,
  "ions": 884,
  "\n  ": 885,
  " column": 886,
  " wr": 887,
  " exact": 888,
  " determ": 889,
  "ems": 890,
  " gra": 891,
  " ent": 892,
  " ret": 893,
  "An": 894,
  "own": 895,
  " hig": 896,
  "out": 897,
  " inde": 898,
  "ting": 899,
  " par": 900,
  " vector": 901,
  " rel": 902,
  "pos": 903,
  "ount": 904,
  " component": 905,
  " divis": 906,
  " subst": 907,
  " sc": 908,
  " gives": 909,
  " becomes": 910,
  " previous": 911,
  "rough": 912,
  " another": 913,
  " cos": 914,
  "cur": 915,
  " subt": 916,
  "one": 917,
  "age": 918,
  " fact": 919,
  " through": 920,
  "Now": 921,
  " bit": 922,
  " ty": 923,
  "ph": 924,
  " block": 925,
  " cy": 926,
  " lead": 927,
  " dec": 928,
  " query": 929,
  "llow": 930,
  " man": 931,
  " remaining": 932,
  "the": 933,
  "think": 934,
  " return": 935,
  " sin": 936,
  " te": 937,
  " says": 938,
  "du": 939,
  " according": 940,
  " constra": 941,
  "vers": 942,
  " sequence": 943,
  " positive": 944,
  " follow": 945,
  "ise": 946,
  " take": 947,
  "imilarly": 948,
  "ffect": 949,
  " split": 950,
  "ides": 951,
  "form": 952,
  " range": 953,
  " child": 954,
  "alle": 955,
  " digits": 956,
  "app": 957,
  "alcul": 958,
  " small": 959,
  " prefix": 960,
  "ield": 961,
  " formul": 962,
  " This": 963,
  " values": 964,
  "nect": 965,
  " go": 966,
  " last": 967,
  "/(": 968,
  " subset": 969,
  " tri": 970,
  " else": 971,
  " exist": 972,
  " perm": 973,
  "13": 974,
  "ved": 975,
  " cl": 976,
  " K": 977,
  "bs": 978,
  "Then": 979,
  "uring": 980,
  " move": 981,
  " depend": 982,
  " direction": 983,
  " exactly": 984,
  "ask": 985,
  " track": 986,
  " odd": 987,
  " formula": 988,
  "14": 989,
  "ring": 990,
  "ile": 991,
  " those": 992,
  " cases": 993,
  " seems": 994,
  "low": 995,
  " <<": 996,
  "\n\n        ": 997,
  " integer": 998,
  " struct": 999,
  "eth": 1000,
  "ne": 1001,
  "ular": 1002,
  " result": 1003,
  " four": 1004,
  " connect": 1005,
  "If": 1006,
  "right": 1007,
  "ex": 1008,
  "pre": 1009,
  "fore": 1010,
  " constraints": 1011,
  " spec": 1012,
  "enc": 1013,
  "\n               ": 1014,
  " 20": 1015,
  " higher": 1016,
  "ify": 1017,
  "\n\n       ": 1018,
  " //": 1019,
  " mass": 1020,
  " neg": 1021,
  "\n\n      ": 1022,
  " size": 1023,
  " dis": 1024,
  " Th": 1025,
  "bin": 1026,
  "First": 1027,
  " field": 1028,
  "less": 1029,
  " also": 1030,
  " what": 1031,
  " permut": 1032,
  ")(": 1033,
  " conf": 1034,
  " yes": 1035,
  " sw": 1036,
  " cent": 1037,
  " processing": 1038,
  " V": 1039,
  "ption": 1040,
  " contain": 1041,
  " opt": 1042,
  "ry": 1043,
  " color": 1044,
  " least": 1045,
  "etic": 1046,
  "ordin": 1047,
  "ak": 1048,
  " inv": 1049,
  "xed": 1050,
  " 12": 1051,
  "\n\n     ": 1052,
  " U": 1053,
  " Hmm": 1054,
  " ind": 1055,
  " cir": 1056,
  "left": 1057,
  " side": 1058,
  " less": 1059,
  " doesn": 1060,
  " force": 1061,
  "ough": 1062,
  " required": 1063,
  "##": 1064,
  " parent": 1065,
  " ≈": 1066,
  " key": 1067,
  "bit": 1068,
  " before": 1069,
  "ward": 1070,
  " cells": 1071,
  "ird": 1072,
  " square": 1073,
  "verse": 1074,
  " del": 1075,
  " sing": 1076,
  "18": 1077,
  " hand": 1078,
  "loc": 1079,
  " kn": 1080,
  " moving": 1081,
  "ithm": 1082,
  "min": 1083,
  " stand": 1084,
  "cept": 1085,
  " That": 1086,
  "fin": 1087,
  "ice": 1088,
  "ub": 1089,
  "ail": 1090,
  " was": 1091,
  " remo": 1092,
  " ref": 1093,
  " calcul": 1094,
  "adi": 1095,
  "ither": 1096,
  "ick": 1097,
  "ok": 1098,
  " single": 1099,
  "cd": 1100,
  "prev": 1101,
  "ppose": 1102,
  "ire": 1103,
  "ines": 1104,
  " efficient": 1105,
  "asing": 1106,
  "boxed": 1107,
  "Another": 1108,
  " 100": 1109,
  " real": 1110,
  " area": 1111,
  " negative": 1112,
  "dered": 1113,
  " express": 1114,
  " ≤": 1115,
  "17": 1116,
  "po": 1117,
  " bu": 1118,
  "',": 1119,
  "ceed": 1120,
  " during": 1121,
  " des": 1122,
  " gr": 1123,
  " Which": 1124,
  " once": 1125,
  "mplement": 1126,
  " delta": 1127,
  " actual": 1128,
  "ons": 1129,
  "inc": 1130,
  " AB": 1131,
  " standard": 1132,
  " veloc": 1133,
  " times": 1134,
  " states": 1135,
  " fe": 1136,
  " \\).": 1137,
  " vari": 1138,
  " multiple": 1139,
  "imp": 1140,
  "24": 1141,
  "ract": 1142,
  " play": 1143,
  "anges": 1144,
  "count": 1145,
  " select": 1146,
  " lower": 1147,
  "aybe": 1148,
  "up": 1149,
  "led": 1150,
  "gn": 1151,
  "ty": 1152,
  " reg": 1153,
  "**:": 1154,
  " represent": 1155,
  "ory": 1156,
  " combin": 1157,
  "que": 1158,
  " choose": 1159,
  "()": 1160,
  "ross": 1161,
  " electron": 1162,
  " coordin": 1163,
  "ze": 1164,
  "hen": 1165,
  " requires": 1166,
  "++": 1167,
  " ...": 1168,
  " index": 1169,
  " allowed": 1170,
  " cor": 1171,
  " prop": 1172,
  "read": 1173,
  "ific": 1174,
  " operations": 1175,
  " rec": 1176,
  " include": 1177,
  " bo": 1178,
  "get": 1179,
  " difference": 1180,
  " oc": 1181,
  " triangle": 1182,
  " $": 1183,
  " den": 1184,
  " minimum": 1185,
  " large": 1186,
  "ject": 1187,
  "wise": 1188,
  "gg": 1189,
  "ead": 1190,
  " make": 1191,
  "cel": 1192,
  " dp": 1193,
  " rot": 1194,
  " >>": 1195,
  "100": 1196,
  " +=": 1197,
  " larger": 1198,
  " within": 1199,
  " car": 1200,
  " incorrect": 1201,
  " down": 1202,
  " fre": 1203,
  "ches": 1204,
  "kay": 1205,
  " velocity": 1206,
  " ho": 1207,
  " back": 1208,
  " why": 1209,
  " cre": 1210,
  " mid": 1211,
  "sec": 1212,
  " either": 1213,
  "no": 1214,
  "ane": 1215,
  " syst": 1216,
  " adjac": 1217,
  " speed": 1218,
  "ency": 1219,
  " Maybe": 1220,
  " ear": 1221,
  "--": 1222,
  " radi": 1223,
  "gor": 1224,
  "current": 1225,
  " cost": 1226,
  " \\(\\": 1227,
  " \\),": 1228,
  "ility": 1229,
  "ically": 1230,
  " Q": 1231,
  " adding": 1232,
  " integers": 1233,
  " lim": 1234,
  "dea": 1235,
  "inary": 1236,
  " comput": 1237,
  " entire": 1238,
  " comple": 1239,
  " deg": 1240,
  " sat": 1241,
  " permutation": 1242,
  "omin": 1243,
  "io": 1244,
  " No": 1245,
  " type": 1246,
  "itor": 1247,
  " leading": 1248,
  " prec": 1249,
  " occur": 1250,
  " und": 1251,
  " just": 1252,
  " whether": 1253,
  "row": 1254,
  " third": 1255,
  " digit": 1256,
  "atic": 1257,
  "isf": 1258,
  " starting": 1259,
  "gorithm": 1260,
  " cand": 1261,
  " try": 1262,
  "utive": 1263,
  " structure": 1264,
  " partic": 1265,
  "oriz": 1266,
  "'m": 1267,
  "secutive": 1268,
  "ia": 1269,
  "ities": 1270,
  " used": 1271,
  " sides": 1272,
  " gre": 1273,
  " Each": 1274,
  " satisf": 1275,
  ".,": 1276,
  "side": 1277,
  "impl": 1278,
  " √": 1279,
  "sign": 1280,
  " bre": 1281,
  " determin": 1282,
  "which": 1283,
  "ten": 1284,
  "tc": 1285,
  " ins": 1286,
  "ential": 1287,
  ")/(": 1288,
  " connected": 1289,
  " graph": 1290,
  " constant": 1291,
  " present": 1292,
  " invol": 1293,
  " isn": 1294,
  "ational": 1295,
  "based": 1296,
  "orm": 1297,
  " cycle": 1298,
  "bab": 1299,
  "lf": 1300,
  " added": 1301,
  "und": 1302,
  "\\).": 1303,
  " bl": 1304,
  " algorithm": 1305,
  "33": 1306,
  "gr": 1307,
  "otal": 1308,
  "rees": 1309,
  "action": 1310,
  " characters": 1311,
  " consecutive": 1312,
  "like": 1313,
  " being": 1314,
  " sure": 1315,
  " etc": 1316,
  "ents": 1317,
  " assign": 1318,
  "ossible": 1319,
  " implement": 1320,
  "valid": 1321,
  "ized": 1322,
  " log": 1323,
  "pl": 1324,
  "},": 1325,
  "loor": 1326,
  " light": 1327,
  " Not": 1328,
  "ertain": 1329,
  " Alternatively": 1330,
  " der": 1331,
  " intervals": 1332,
  "lied": 1333,
  " variable": 1334,
  " system": 1335,
  "ins": 1336,
  " comm": 1337,
  "cos": 1338,
  "$$$.": 1339,
  " magn": 1340,
  " pass": 1341,
  " certain": 1342,
  " earli": 1343,
  "ys": 1344,
  "itions": 1345,
  " considering": 1346,
  " redu": 1347,
  " binary": 1348,
  " children": 1349,
  " ob": 1350,
  " many": 1351,
  " optimal": 1352,
  "50": 1353,
  " matches": 1354,
  "arr": 1355,
  "nce": 1356,
  "19": 1357,
  " sur": 1358,
  " statement": 1359,
  " change": 1360,
  "OR": 1361,
  " candid": 1362,
  " subtree": 1363,
  " without": 1364,
  "ures": 1365,
  "celer": 1366,
  " conditions": 1367,
  "pend": 1368,
  " exponent": 1369,
  " processed": 1370,
  " merg": 1371,
  "mpty": 1372,
  "orizon": 1373,
  " found": 1374,
  "agon": 1375,
  " ++": 1376,
  " len": 1377,
  "ready": 1378,
  "ided": 1379,
  " cnt": 1380,
  " met": 1381,
  "uppose": 1382,
  " don": 1383,
  " cin": 1384,
  "round": 1385,
  " substit": 1386,
  " prime": 1387,
  "par": 1388,
  "ake": 1389,
  " &": 1390,
  " adjacent": 1391,
  "Hmm": 1392,
  "ale": 1393,
  "ost": 1394,
  " !": 1395,
  "ied": 1396,
  " pot": 1397,
  " 16": 1398,
  " say": 1399,
  " probab": 1400,
  " vol": 1401,
  " reach": 1402,
  " segments": 1403,
  " charge": 1404,
  " hy": 1405,
  " lines": 1406,
  " av": 1407,
  " operation": 1408,
  " solutions": 1409,
  " most": 1410,
  " under": 1411,
  " press": 1412,
  " 11": 1413,
  "</": 1414,
  " already": 1415,
  "aw": 1416,
  "asible": 1417,
  " Similarly": 1418,
  " id": 1419,
  "als": 1420,
  "vel": 1421,
  " #": 1422,
  "amet": 1423,
  "ggest": 1424,
  " suggest": 1425,
  " bits": 1426,
  " affect": 1427,
  "Okay": 1428,
  " largest": 1429,
  " deriv": 1430,
  "from": 1431,
  "sin": 1432,
  " fl": 1433,
  "\\[": 1434,
  " feasible": 1435,
  "ature": 1436,
  " 25": 1437,
  " exists": 1438,
  " interse": 1439,
  " ver": 1440,
  " uni": 1441,
  " lea": 1442,
  "       ": 1443,
  " acceler": 1444,
  " final": 1445,
  " allows": 1446,
  "itorial": 1447,
  "here": 1448,
  " XOR": 1449,
  " horizon": 1450,
  " !=": 1451,
  "kes": 1452,
  " true": 1453,
  " counts": 1454,
  " along": 1455,
  "inct": 1456,
  " frequ": 1457,
  " temp": 1458,
  " contains": 1459,
  "We": 1460,
  " moment": 1461,
  " starts": 1462,
  "size": 1463,
  " base": 1464,
  " limit": 1465,
  " best": 1466,
  " rat": 1467,
  " impossible": 1468,
  "hed": 1469,
  "ep": 1470,
  " abs": 1471,
  "}.": 1472,
  "ian": 1473,
  "alse": 1474,
  "$$$,": 1475,
  " factor": 1476,
  " center": 1477,
  "iven": 1478,
  "con": 1479,
  "utes": 1480,
  " based": 1481,
  "ush": 1482,
  " decre": 1483,
  " assum": 1484,
  "let": 1485,
  "sib": 1486,
  " potential": 1487,
  "30": 1488,
  " efficiently": 1489,
  "adr": 1490,
  " contribution": 1491,
  "rocess": 1492,
  " still": 1493,
  " distinct": 1494,
  " groups": 1495,
  " grav": 1496,
  "mmet": 1497,
  "36": 1498,
  ")*": 1499,
  " require": 1500,
  "gen": 1501,
  " components": 1502,
  " proceed": 1503,
  " am": 1504,
  " depth": 1505,
  " ]": 1506,
  " break": 1507,
  " sign": 1508,
  "pond": 1509,
  " substring": 1510,
  " inst": 1511,
  "ixed": 1512,
  " day": 1513,
  "text": 1514,
  "attern": 1515,
  "ib": 1516,
  "yn": 1517,
  "arget": 1518,
  " coordinates": 1519,
  " effect": 1520,
  "ear": 1521,
  " 18": 1522,
  "ral": 1523,
  " quadr": 1524,
  " depends": 1525,
  " plus": 1526,
  "])": 1527,
  " 15": 1528,
  "ding": 1529,
  " main": 1530,
  " %": 1531,
  " due": 1532,
  "];": 1533,
  "ced": 1534,
  "xis": 1535,
  "\".": 1536,
  "respond": 1537,
  "ething": 1538,
  " pressure": 1539,
  "ull": 1540,
  "allest": 1541,
  " determined": 1542,
  "pper": 1543,
  " wind": 1544,
  " grid": 1545,
  " cross": 1546,
  " sums": 1547,
  " correspond": 1548,
  " :": 1549,
  " contin": 1550,
  " vertical": 1551,
  " invalid": 1552,
  " while": 1553,
  "log": 1554,
  " divisible": 1555,
  "ailable": 1556,
  "\\]": 1557,
  "mat": 1558,
  " water": 1559,
  " considered": 1560,
  "\\),": 1561,
  " editorial": 1562,
  " pattern": 1563,
  "ming": 1564,
  " high": 1565,
  " works": 1566,
  " trip": 1567,
  " indices": 1568,
  "ppos": 1569,
  " rest": 1570,
  " needed": 1571,
  " run": 1572,
  " mem": 1573,
  " rect": 1574,
  "(-": 1575,
  "\n\n          ": 1576,
  " determine": 1577,
  " level": 1578,
  "cdot": 1579,
  " equations": 1580,
  "Option": 1581,
  " handle": 1582,
  "Similarly": 1583,
  " know": 1584,
  " upd": 1585,
  "using": 1586,
  " resi": 1587,
  "di": 1588,
  " smaller": 1589,
  " hal": 1590,
  "ffix": 1591,
  " increases": 1592,
  " follows": 1593,
  " horizontal": 1594,
  " smallest": 1595,
  " something": 1596,
  " suggests": 1597,
  "aps": 1598,
  " read": 1599,
  " BC": 1600,
  " chain": 1601,
  " DP": 1602,
  "hat": 1603,
  " your": 1604,
  "not": 1605,
  " desc": 1606,
  " π": 1607,
  " wave": 1608,
  " LC": 1609,
  " conc": 1610,
  "21": 1611,
  " vis": 1612,
  "ext": 1613,
  "ics": 1614,
  "sive": 1615,
  " hold": 1616,
  "ata": 1617,
  " Thus": 1618,
  "'.": 1619,
  "per": 1620,
  "40": 1621,
  "\n\n           ": 1622,
  " reverse": 1623,
  " parts": 1624,
  " subse": 1625,
  " target": 1626,
  " floor": 1627,
  " around": 1628,
  " possib": 1629,
  " ca": 1630,
  " primes": 1631,
  " surf": 1632,
  " We": 1633,
  "xy": 1634,
  " Compute": 1635,
  " J": 1636,
  " br": 1637,
  " vertex": 1638,
  " common": 1639,
  " Check": 1640,
  "usion": 1641,
  " symmet": 1642,
  " top": 1643,
  "pr": 1644,
  "ven": 1645,
  " θ": 1646,
  "{\\": 1647,
  "length": 1648,
  " write": 1649,
  " resp": 1650,
  "itten": 1651,
  "\",": 1652,
  "ict": 1653,
  " ≥": 1654,
  "arch": 1655,
  "ments": 1656,
  " includes": 1657,
  "gram": 1658,
  " mean": 1659,
  " fr": 1660,
  " generate": 1661,
  " circle": 1662,
  "pa": 1663,
  " window": 1664,
  " poly": 1665,
  " apply": 1666,
  "ark": 1667,
  " weight": 1668,
  "efficient": 1669,
  "ings": 1670,
  " though": 1671,
  " revers": 1672,
  " ens": 1673,
  " expression": 1674,
  " look": 1675,
  "inclu": 1676,
  " An": 1677,
  " reas": 1678,
  "60": 1679,
  " Or": 1680,
  " idea": 1681,
  "75": 1682,
  " vertices": 1683,
  "aced": 1684,
  "28": 1685,
  " subtract": 1686,
  "64": 1687,
  "ouble": 1688,
  " queries": 1689,
  " mask": 1690,
  "OD": 1691,
  " cout": 1692,
  " arrange": 1693,
  " swap": 1694,
  " our": 1695,
  "}}": 1696,
  " moves": 1697,
  " overl": 1698,
  " fixed": 1699,
  " space": 1700,
  " loop": 1701,
  "ormal": 1702,
  " frequency": 1703,
  " diagon": 1704,
  "xim": 1705,
  " object": 1706,
  " degrees": 1707,
  "Yes": 1708,
  " reason": 1709,
  " electrons": 1710,
  "node": 1711,
  " variables": 1712,
  " hel": 1713,
  " recall": 1714,
  "el": 1715,
  "ruct": 1716,
  " specific": 1717,
  " done": 1718,
  " unique": 1719,
  "ensity": 1720,
  " general": 1721,
  "iss": 1722,
  " When": 1723,
  "raction": 1724,
  " bal": 1725,
  "uting": 1726,
  "very": 1727,
  "CD": 1728,
  " similar": 1729,
  " build": 1730,
  "pha": 1731,
  "ift": 1732,
  " rows": 1733,
  " red": 1734,
  " surface": 1735,
  " data": 1736,
  " height": 1737,
  "back": 1738,
  " typ": 1739,
  " phot": 1740,
  " stu": 1741,
  " merged": 1742,
  " inside": 1743,
  " available": 1744,
  " iter": 1745,
  " computed": 1746,
  "part": 1747,
  " coefficient": 1748,
  " too": 1749,
  " half": 1750,
  "rix": 1751,
  " columns": 1752,
  "new": 1753,
  " cap": 1754,
  " bond": 1755,
  " radius": 1756,
  "ton": 1757,
  ")]": 1758,
  "32": 1759,
  " 14": 1760,
  "enari": 1761,
  "ominator": 1762,
  " greater": 1763,
  "Compute": 1764,
  " prov": 1765,
  " factors": 1766,
  " better": 1767,
  "ters": 1768,
  " Hence": 1769,
  "=-": 1770,
  " actually": 1771,
  " transform": 1772,
  "start": 1773,
  " parity": 1774,
  " mu": 1775,
  " separ": 1776,
  " approxim": 1777,
  " double": 1778,
  " MOD": 1779,
  "ately": 1780,
  " 13": 1781,
  " empty": 1782,
  " expect": 1783,
  " increasing": 1784,
  "Given": 1785,
  "equ": 1786,
  " candidate": 1787,
  " suffix": 1788,
  "len": 1789,
  " via": 1790,
  " cover": 1791,
  " meas": 1792,
  "22": 1793,
  " colors": 1794,
  " changes": 1795,
  " collect": 1796,
  " scenari": 1797,
  "cu": 1798,
  " divided": 1799,
  " oppos": 1800,
  " acceleration": 1801,
  " acid": 1802,
  " reaction": 1803,
  "bser": 1804,
  "dig": 1805,
  " written": 1806,
  " quant": 1807,
  " power": 1808,
  " every": 1809,
  "anged": 1810,
  " mist": 1811,
  " necess": 1812,
  "Alternative": 1813,
  " ratio": 1814,
  " satisfy": 1815,
  "ternal": 1816,
  "apping": 1817,
  "cles": 1818,
  " match": 1819,
  " precompute": 1820,
  " earlier": 1821,
  " momentum": 1822,
  " program": 1823,
  " bound": 1824,
  " temper": 1825,
  "co": 1826,
  "27": 1827,
  "ner": 1828,
  " turn": 1829,
  "ES": 1830,
  " complic": 1831,
  " meth": 1832,
  " complex": 1833,
  " ext": 1834,
  "itional": 1835,
  "\n                   ": 1836,
  "ho": 1837,
  "to": 1838,
  " ident": 1839,
  "av": 1840,
  "rences": 1841,
  " ≡": 1842,
  "self": 1843,
  " roots": 1844,
  " expl": 1845,
  "\\(": 1846,
  "ctors": 1847,
  " multiplied": 1848,
  " squares": 1849,
  " obser": 1850,
  " α": 1851,
  " subsequ": 1852,
  "rem": 1853,
  " now": 1854,
  " ways": 1855,
  "ames": 1856,
  "imize": 1857,
  "ume": 1858,
  " Suppose": 1859,
  " fig": 1860,
  " upper": 1861,
  " search": 1862,
  " =>": 1863,
  " remains": 1864,
  " days": 1865,
  "^{-": 1866,
  "eros": 1867,
  " defin": 1868,
  "pi": 1869,
  " uses": 1870,
  "lies": 1871,
  " unless": 1872,
  " black": 1873,
  "23": 1874,
  " low": 1875,
  "tr": 1876,
  "ending": 1877,
  "itu": 1878,
  "are": 1879,
  "ynam": 1880,
  " 50": 1881,
  " mot": 1882,
  " manage": 1883,
  "ug": 1884,
  "ots": 1885,
  "ess": 1886,
  "aches": 1887,
  "dro": 1888,
  " atom": 1889,
  " directly": 1890,
  " ...,": 1891,
  "dp": 1892,
  "times": 1893,
  "time": 1894,
  " opposite": 1895,
  " above": 1896,
  " sour": 1897,
  " cr": 1898,
  " Al": 1899,
  "ization": 1900,
  " cur": 1901,
  "ified": 1902,
  "theta": 1903,
  " flow": 1904,
  " modul": 1905,
  "edi": 1906,
  "oking": 1907,
  "sc": 1908,
  "ways": 1909,
  "input": 1910,
  " she": 1911,
  " mole": 1912,
  "ember": 1913,
  " create": 1914,
  " stack": 1915,
  "ension": 1916,
  "therwise": 1917,
  " solve": 1918,
  "ivale": 1919,
  " Correct": 1920,
  " mistake": 1921,
  "zero": 1922,
  " linear": 1923,
  " infin": 1924,
  " correctly": 1925,
  "total": 1926,
  " simpl": 1927,
  " matrix": 1928,
  "oid": 1929,
  "line": 1930,
  " my": 1931,
  "To": 1932,
  " frame": 1933,
  " normal": 1934,
  "66": 1935,
  " Yes": 1936,
  "ded": 1937,
  " Now": 1938,
  " zeros": 1939,
  " att": 1940,
  " equivale": 1941,
  " adjust": 1942,
  " magnetic": 1943,
  "riction": 1944,
  " 30": 1945,
  " sha": 1946,
  "ored": 1947,
  "onst": 1948,
  " density": 1949,
  "gin": 1950,
  " programming": 1951,
  " AC": 1952,
  " perform": 1953,
  " transitions": 1954,
  "wards": 1955,
  " 200": 1956,
  " contributes": 1957,
  "osen": 1958,
  " 19": 1959,
  "utput": 1960,
  "48": 1961,
  "array": 1962,
  "35": 1963,
  " remember": 1964,
  "ativ": 1965,
  " tan": 1966,
  " To": 1967,
  " It": 1968,
  " wrong": 1969,
  " selected": 1970,
  " diff": 1971,
  " chosen": 1972,
  "erator": 1973,
  " intersection": 1974,
  "with": 1975,
  " plane": 1976,
  " help": 1977,
  "vered": 1978,
  "yl": 1979,
  "\n\n         ": 1980,
  " ranges": 1981,
  " memory": 1982,
  " vectors": 1983,
  "ighb": 1984,
  "vert": 1985,
  " rectangle": 1986,
  " ×": 1987,
  "ob": 1988,
  " temperature": 1989,
  "col": 1990,
  " volume": 1991,
  " following": 1992,
  " repl": 1993,
  " ones": 1994,
  " player": 1995,
  " denominator": 1996,
  " place": 1997,
  "ks": 1998,
  " ce": 1999,
  " units": 2000,
  "FS": 2001,
  "\n\n                    ": 2002,
  " unit": 2003,
  " derivative": 2004,
  "lection": 2005,
  " continue": 2006,
  "Read": 2007,
  " needs": 2008,
  "cl": 2009,
  " subsets": 2010,
  "omet": 2011,
  " note": 2012,
  " heat": 2013,
  "ited": 2014,
  " plan": 2015,
  "ences": 2016,
  "200": 2017,
  " figure": 2018,
  " except": 2019,
  "ameter": 2020,
  "mod": 2021,
  "rop": 2022,
  "push": 2023,
  " coll": 2024,
  " phase": 2025,
  "aces": 2026,
  " ball": 2027,
  "ror": 2028,
  " 24": 2029,
  " electric": 2030,
  "sp": 2031,
  "aining": 2032,
  "aly": 2033,
  "cre": 2034,
  "ote": 2035,
  " multiply": 2036,
  " clos": 2037,
  " el": 2038,
  "arth": 2039,
  "equal": 2040,
  " leaves": 2041,
  " reduces": 2042,
  " divisors": 2043,
  "ually": 2044,
  " ima": 2045,
  "num": 2046,
  "Which": 2047,
  " false": 2048,
  " la": 2049,
  "ken": 2050,
  "raight": 2051,
  " conduct": 2052,
  " paths": 2053,
  "'re": 2054,
  " getting": 2055,
  " map": 2056,
  " reversed": 2057,
  "45": 2058,
  " Otherwise": 2059,
  "lice": 2060,
  "angles": 2061,
  " neighb": 2062,
  " implementation": 2063,
  " sl": 2064,
  " scenario": 2065,
  " remove": 2066,
  " equals": 2067,
  " ment": 2068,
  " ans": 2069,
  " angles": 2070,
  "leq": 2071,
  " accept": 2072,
  " manageable": 2073,
  " orbit": 2074,
  "std": 2075,
  "uous": 2076,
  "suming": 2077,
  " always": 2078,
  "})": 2079,
  "ardless": 2080,
  "imin": 2081,
  " card": 2082,
  "neg": 2083,
  " much": 2084,
  "itational": 2085,
  " phys": 2086,
  " hydro": 2087,
  "digit": 2088,
  "hest": 2089,
  " quadratic": 2090,
  " spin": 2091,
  " print": 2092,
  "ntil": 2093,
  "ning": 2094,
  " Sum": 2095,
  " cannot": 2096,
  "80": 2097,
  " give": 2098,
  " were": 2099,
  " itself": 2100,
  " until": 2101,
  " means": 2102,
  "wn": 2103,
  "point": 2104,
  "ense": 2105,
  " GCD": 2106,
  "math": 2107,
  "Sample": 2108,
  " happ": 2109,
  " covered": 2110,
  "include": 2111,
  "imized": 2112,
  " equivalent": 2113,
  " making": 2114,
  "icular": 2115,
  "output": 2116,
  "vector": 2117,
  " ?": 2118,
  " motion": 2119,
  "pendicular": 2120,
  " made": 2121,
  " free": 2122,
  "Check": 2123,
  " regardless": 2124,
  "ling": 2125,
  " formed": 2126,
  " very": 2127,
  " makes": 2128,
  "ets": 2129,
  "yth": 2130,
  "ere": 2131,
  " Earth": 2132,
  " complicated": 2133,
  " recur": 2134,
  " pe": 2135,
  "over": 2136,
  " ceil": 2137,
  "axis": 2138,
  " fli": 2139,
  "clu": 2140,
  "begin": 2141,
  " consist": 2142,
  "();": 2143,
  "ances": 2144,
  " exceed": 2145,
  "70": 2146,
  " dynam": 2147,
  " respect": 2148,
  "rad": 2149,
  "98": 2150,
  "ism": 2151,
  "ilities": 2152,
  " triplet": 2153,
  "Ah": 2154,
  " ach": 2155,
  "fect": 2156,
  " straight": 2157,
  " inequal": 2158,
  " probability": 2159,
  " Output": 2160,
  " update": 2161,
  "(),": 2162,
  " bott": 2163,
  " 60": 2164,
  "but": 2165,
  " stud": 2166,
  " achie": 2167,
  " blocks": 2168,
  "mask": 2169,
  " angular": 2170,
  "lar": 2171,
  " bas": 2172,
  " contribute": 2173,
  "bon": 2174,
  " er": 2175,
  " diagonal": 2176,
  " placed": 2177,
  "44": 2178,
  "chan": 2179,
  "uto": 2180,
  " perpendicular": 2181,
  " method": 2182,
  " gravitational": 2183,
  "90": 2184,
  " quantum": 2185,
  " others": 2186,
  " choices": 2187,
  " round": 2188,
  "orted": 2189,
  "°,": 2190,
  " Z": 2191,
  " LCA": 2192,
  " fil": 2193,
  " Format": 2194,
  " ser": 2195,
  " shift": 2196,
  " word": 2197,
  " minus": 2198,
  " nu": 2199,
  " seconds": 2200,
  " dim": 2201,
  " particles": 2202,
  "iod": 2203,
  " conve": 2204,
  " removed": 2205,
  "ired": 2206,
  " want": 2207,
  " been": 2208,
  " finding": 2209,
  "}\\": 2210,
  " air": 2211,
  " checking": 2212,
  "pping": 2213,
  " tang": 2214,
  " good": 2215,
  "den": 2216,
  " los": 2217,
  " rotation": 2218,
  " Ex": 2219,
  " sk": 2220,
  " complete": 2221,
  " NO": 2222,
  " calculation": 2223,
  " 1000": 2224,
  " ⇒": 2225,
  " forces": 2226,
  " Pro": 2227,
  " appear": 2228,
  "*(-": 2229,
  " dele": 2230,
  " friction": 2231,
  "26": 2232,
  " ($$$": 2233,
  " insert": 2234,
  " balance": 2235,
  " class": 2236,
  " What": 2237,
  "anging": 2238,
  "prime": 2239,
  "prefix": 2240,
  " ±": 2241,
  " known": 2242,
  "original": 2243,
  " sense": 2244,
  " divides": 2245,
  " paralle": 2246,
  " mechan": 2247,
  " propert": 2248,
  " ab": 2249,
  "ful": 2250,
  " modulo": 2251,
  " box": 2252,
  " Idea": 2253,
  " ω": 2254,
  " St": 2255,
  " ends": 2256,
  " movement": 2257,
  " additional": 2258,
  "ateg": 2259,
  "29": 2260,
  " off": 2261,
  " \\]": 2262,
  "sub": 2263,
  " combination": 2264,
  "even": 2265,
  " subarray": 2266,
  " implies": 2267,
  "ython": 2268,
  "ural": 2269,
  "ultiply": 2270,
  "=(": 2271,
  "econd": 2272,
  "gon": 2273,
  "49": 2274,
  "most": 2275,
  " suppose": 2276,
  "After": 2277,
  " 17": 2278,
  " law": 2279,
  " relative": 2280,
  " Alice": 2281,
  " coordinate": 2282,
  "dle": 2283,
  " 90": 2284,
  " contrad": 2285,
  " acceptable": 2286,
  " period": 2287,
  " que": 2288,
  "anding": 2289,
  " team": 2290,
  "omial": 2291,
  " verify": 2292,
  "^(": 2293,
  " nucle": 2294,
  " displ": 2295,
  " context": 2296,
  " increase": 2297,
  "Each": 2298,
  " particle": 2299,
  " white": 2300,
  " related": 2301,
  "erhaps": 2302,
  " permutations": 2303,
  " Bob": 2304,
  " neut": 2305,
  "}^": 2306,
  " YES": 2307,
  " dra": 2308,
  "ended": 2309,
  " approaches": 2310,
  " enough": 2311,
  "initial": 2312,
  "]=": 2313,
  " Find": 2314,
  "pendent": 2315,
  "ube": 2316,
  "itude": 2317,
  "alpha": 2318,
  " lay": 2319,
  " denote": 2320,
  " blue": 2321,
  " occurrence": 2322,
  " numerator": 2323,
  "//": 2324,
  "bal": 2325,
  "55": 2326,
  "aves": 2327,
  "arily": 2328,
  "itialize": 2329,
  " gas": 2330,
  " game": 2331,
  "erge": 2332,
  "child": 2333,
  "())": 2334,
  " win": 2335,
  "cy": 2336,
  " resid": 2337,
  "rm": 2338,
  " highest": 2339,
  "verage": 2340,
  " probably": 2341,
  " resist": 2342,
  " distrib": 2343,
  " ln": 2344,
  "agn": 2345,
  " gravity": 2346,
  " sets": 2347,
  "ortion": 2348,
  "cal": 2349,
  " Add": 2350,
  " followed": 2351,
  "\n\n              ": 2352,
  " takes": 2353,
  "\n                    ": 2354,
  " 40": 2355,
  " transition": 2356,
  "da": 2357,
  " molecu": 2358,
  " Li": 2359,
  "acement": 2360,
  "}\\)": 2361,
  " miss": 2362,
  " construct": 2363,
  "cular": 2364,
  "pair": 2365,
  "points": 2366,
  " confir": 2367,
  " task": 2368,
  "way": 2369,
  " earliest": 2370,
  " β": 2371,
  "olute": 2372,
  "76": 2373,
  " measure": 2374,
  "(\\": 2375,
  "ators": 2376,
  "idden": 2377,
  " divide": 2378,
  "where": 2379,
  " symmetry": 2380,
  " mater": 2381,
  " arranged": 2382,
  "pro": 2383,
  "ront": 2384,
  " tra": 2385,
  "')": 2386,
  " likely": 2387,
  "Final": 2388,
  " asking": 2389,
  " equil": 2390,
  "negative": 2391,
  " applied": 2392,
  " comes": 2393,
  " sequences": 2394,
  " swaps": 2395,
  "amb": 2396,
  " indeed": 2397,
  " dynamic": 2398,
  " &&": 2399,
  "ateral": 2400,
  " show": 2401,
  " em": 2402,
  " intersect": 2403,
  " material": 2404,
  " fraction": 2405,
  " Also": 2406,
  " remainder": 2407,
  " ant": 2408,
  " structures": 2409,
  " names": 2410,
  " event": 2411,
  "Case": 2412,
  " among": 2413,
  "son": 2414,
  " existing": 2415,
  "izes": 2416,
  "Once": 2417,
  " exponents": 2418,
  " convex": 2419,
  " own": 2420,
  " across": 2421,
  " strong": 2422,
  " strateg": 2423,
  "0000": 2424,
  "process": 2425,
  "case": 2426,
  "}^{": 2427,
  " queue": 2428,
  " coefficients": 2429,
  " absolute": 2430,
  "ration": 2431,
  " reality": 2432,
  "hile": 2433,
  " BFS": 2434,
  " strings": 2435,
  " none": 2436,
  " Δ": 2437,
  " middle": 2438,
  " ensure": 2439,
  " dx": 2440,
  " spl": 2441,
  "\n\n               ": 2442,
  "idx": 2443,
  " possibilities": 2444,
  "inetic": 2445,
  " inequality": 2446,
  " All": 2447,
  " approximately": 2448,
  " pres": 2449,
  " ge": 2450,
  " flu": 2451,
  "Suppose": 2452,
  " Option": 2453,
  " adds": 2454,
  " stre": 2455,
  "bits": 2456,
  "mu": 2457,
  " occurs": 2458,
  " maint": 2459,
  " produ": 2460,
  " cut": 2461,
  "la": 2462,
  "lope": 2463,
  ")).": 2464,
  " involves": 2465,
  "Second": 2466,
  " And": 2467,
  "used": 2468,
  " source": 2469,
  "dist": 2470,
  " AD": 2471,
  "AB": 2472,
  " average": 2473,
  " confirm": 2474,
  " players": 2475,
  "atural": 2476,
  " std": 2477,
  "ilt": 2478,
  " splits": 2479,
  " wins": 2480,
  "vation": 2481,
  " λ": 2482,
  " events": 2483,
  " theore": 2484,
  " φ": 2485,
  " functions": 2486,
  "Cl": 2487,
  "cpp": 2488,
  "Process": 2489,
  "ysis": 2490,
  "sorted": 2491,
  "ivid": 2492,
  " axis": 2493,
  "iction": 2494,
  " parallel": 2495,
  " charges": 2496,
  "cent": 2497,
  "No": 2498,
  " gcd": 2499,
  "bidden": 2500,
  " strategy": 2501,
  " Answer": 2502,
  " bottom": 2503,
  "number": 2504,
  "34": 2505,
  " compet": 2506,
  " After": 2507,
  "From": 2508,
  ">>": 2509,
  " def": 2510,
  " crit": 2511,
  " visited": 2512,
  " fields": 2513,
  " interaction": 2514,
  "ats": 2515,
  "sing": 2516,
  " carbon": 2517,
  "alysis": 2518,
  " Input": 2519,
  " Tr": 2520,
  " arc": 2521,
  "}}{": 2522,
  " calculate": 2523,
  "ambda": 2524,
  " leads": 2525,
  " arrays": 2526,
  "ste": 2527,
  " kinetic": 2528,
  "riend": 2529,
  "ries": 2530,
  " gu": 2531,
  " directions": 2532,
  " cm": 2533,
  " letters": 2534,
  "ision": 2535,
  "roup": 2536,
  "ci": 2537,
  "ish": 2538,
  " had": 2539,
  " cube": 2540,
  "pace": 2541,
  " overlapping": 2542,
  "NO": 2543,
  " km": 2544,
  "ls": 2545,
  "Since": 2546,
  " lengths": 2547,
  "inde": 2548,
  " mir": 2549,
  "Lo": 2550,
  " scal": 2551,
  " integral": 2552,
  " natural": 2553,
  "->": 2554,
  " candidates": 2555,
  " degree": 2556,
  " external": 2557,
  " arrangement": 2558,
  " instead": 2559,
  "At": 2560,
  "gs": 2561,
  ".\"": 2562,
  " longer": 2563,
  " cycles": 2564,
  "31": 2565,
  " provide": 2566,
  " CD": 2567,
  " keep": 2568,
  " involve": 2569,
  " Else": 2570,
  "tage": 2571,
  " differences": 2572,
  "eta": 2573,
  "ya": 2574,
  " ru": 2575,
  "1000": 2576,
  " vs": 2577,
  " towards": 2578,
  "oint": 2579,
  " tens": 2580,
  " user": 2581,
  "fe": 2582,
  " separate": 2583,
  "iguous": 2584,
  " sto": 2585,
  " rate": 2586,
  " 36": 2587,
  " vary": 2588,
  " runs": 2589,
  "ars": 2590,
  " including": 2591,
  " face": 2592,
  "ifies": 2593,
  "ptr": 2594,
  "rior": 2595,
  " compos": 2596,
  "ser": 2597,
  "nomial": 2598,
  " thought": 2599,
  ")*(": 2600,
  "andid": 2601,
  "999": 2602,
  " You": 2603,
  " mark": 2604,
  " pick": 2605,
  " merge": 2606,
  " ox": 2607,
  " Con": 2608,
  " answers": 2609,
  "map": 2610,
  "etimes": 2611,
  " \\[": 2612,
  " corresponds": 2613,
  " subsequence": 2614,
  " proportion": 2615,
  " hash": 2616,
  " explain": 2617,
  "}\\).": 2618,
  " indic": 2619,
  " sufficient": 2620,
  "gether": 2621,
  " polynomial": 2622,
  " prim": 2623,
  " necessary": 2624,
  " outside": 2625,
  "mon": 2626,
  "implify": 2627,
  " cause": 2628,
  " geomet": 2629,
  "empty": 2630,
  "';": 2631,
  " absor": 2632,
  " theta": 2633,
  " paramet": 2634,
  " Pre": 2635,
  " increment": 2636,
  " exper": 2637,
  " divisor": 2638,
  " holds": 2639,
  "pped": 2640,
  "hem": 2641,
  " squared": 2642,
  "cost": 2643,
  " choos": 2644,
  " represents": 2645,
  "96": 2646,
  " cards": 2647,
  "alyze": 2648,
  "formation": 2649,
  "37": 2650,
  " fourth": 2651,
  "lease": 2652,
  "odd": 2653,
  "01": 2654,
  "after": 2655,
  " individ": 2656,
  "iding": 2657,
  " together": 2658,
  " did": 2659,
  " critical": 2660,
  " altern": 2661,
  " Ne": 2662,
  " net": 2663,
  " modified": 2664,
  " his": 2665,
  " big": 2666,
  " ordered": 2667,
  "ump": 2668,
  " slow": 2669,
  " calculated": 2670,
  "compute": 2671,
  " well": 2672,
  " included": 2673,
  "candid": 2674,
  " Python": 2675,
  " represented": 2676,
  " $\\": 2677,
  " Like": 2678,
  " refer": 2679,
  " assigned": 2680,
  " applying": 2681,
  " choice": 2682,
  " capac": 2683,
  "order": 2684,
  " namespace": 2685,
  " affects": 2686,
  " —": 2687,
  "amma": 2688,
  "cial": 2689,
  " matter": 2690,
  "ij": 2691,
  " align": 2692,
  " challe": 2693,
  " voltage": 2694,
  "long": 2695,
  " displacement": 2696,
  " basis": 2697,
  " maximize": 2698,
  "\n\n                ": 2699,
  " concent": 2700,
  " friend": 2701,
  " domin": 2702,
  "cnt": 2703,
  " photon": 2704,
  "igur": 2705,
  "aa": 2706,
  " instance": 2707,
  " building": 2708,
  " atoms": 2709,
  " built": 2710,
  "ele": 2711,
  " coins": 2712,
  " twice": 2713,
  "list": 2714,
  " sometimes": 2715,
  " decreases": 2716,
  " oxy": 2717,
  " returns": 2718,
  "ness": 2719,
  " refers": 2720,
  " iterate": 2721,
  "uted": 2722,
  "mo": 2723,
  " perfect": 2724,
  " necessarily": 2725,
  " filled": 2726,
  " elimin": 2727,
  " configur": 2728,
  " conser": 2729,
  " mis": 2730,
  " invers": 2731,
  "ted": 2732,
  "uplic": 2733,
  " usually": 2734,
  "ax": 2735,
  " taken": 2736,
  "ured": 2737,
  " bod": 2738,
  " person": 2739,
  " ABC": 2740,
  " diameter": 2741,
  " five": 2742,
  "tree": 2743,
  " overlap": 2744,
  "delta": 2745,
  "remaining": 2746,
  " account": 2747,
  "56": 2748,
  " tangent": 2749,
  "ively": 2750,
  " 32": 2751,
  " combinations": 2752,
  "incip": 2753,
  " theory": 2754,
  " ε": 2755,
  " happen": 2756,
  "cir": 2757,
  " mon": 2758,
  "diff": 2759,
  "const": 2760,
  " exclu": 2761,
  "first": 2762,
  "yond": 2763,
  " corresponding": 2764,
  " ai": 2765,
  " substituting": 2766,
  "air": 2767,
  "++.": 2768,
  "38": 2769,
  " inf": 2770,
  " multiples": 2771,
  "index": 2772,
  " front": 2773,
  "Because": 2774,
  " operator": 2775,
  " depending": 2776,
  "$$$)": 2777,
  " taking": 2778,
  " sem": 2779,
  " waves": 2780,
  "rip": 2781,
  "dt": 2782,
  " forbidden": 2783,
  " Oh": 2784,
  " merging": 2785,
  " cle": 2786,
  " hence": 2787,
  " flip": 2788,
  " beyond": 2789,
  "Or": 2790,
  "comp": 2791,
  " 45": 2792,
  " LCM": 2793,
  "78": 2794,
  "cest": 2795,
  "?),": 2796,
  " inverse": 2797,
  "inter": 2798,
  " sound": 2799,
  " passes": 2800,
  " react": 2801,
  ")),": 2802,
  " \\):": 2803,
  " resulting": 2804,
  " ^": 2805,
  " vers": 2806,
  " Un": 2807,
  " triangles": 2808,
  " generating": 2809,
  " products": 2810,
  "Multiply": 2811,
  " ancest": 2812,
  " removing": 2813,
  "ants": 2814,
  "encies": 2815,
  " oxygen": 2816,
  "istic": 2817,
  " problems": 2818,
  ")^{": 2819,
  ",-": 2820,
  "ibri": 2821,
  "ribed": 2822,
  "uses": 2823,
  " individual": 2824,
  " meet": 2825,
  " looking": 2826,
  " independent": 2827,
  " examples": 2828,
  " call": 2829,
  "acing": 2830,
  " who": 2831,
  " ~": 2832,
  "append": 2833,
  "ansion": 2834,
  " defined": 2835,
  " coprime": 2836,
  " proportional": 2837,
  "agnetic": 2838,
  "each": 2839,
  " pow": 2840,
  " infinite": 2841,
  " road": 2842,
  " substrings": 2843,
  " stored": 2844,
  " convert": 2845,
  " differ": 2846,
  " princip": 2847,
  "oth": 2848,
  "ibrium": 2849,
  " missing": 2850,
  " alpha": 2851,
  "}$": 2852,
  "ensions": 2853,
  " sim": 2854,
  " super": 2855,
  "Sub": 2856,
  " polar": 2857,
  " region": 2858,
  " ≠": 2859,
  " forms": 2860,
  " disc": 2861,
  "ener": 2862,
  " union": 2863,
  " pi": 2864,
  "}=": 2865,
  "option": 2866,
  " 28": 2867,
  " symmetric": 2868,
  " below": 2869,
  "char": 2870,
  " tor": 2871,
  "Ex": 2872,
  " error": 2873,
  "((": 2874,
  "rol": 2875,
  " duplic": 2876,
  "ier": 2877,
  " conductor": 2878,
  "ivity": 2879,
  "Simplify": 2880,
  " optimized": 2881,
  "nter": 2882,
  "igen": 2883,
  "::": 2884,
  "39": 2885,
  " expected": 2886,
  " information": 2887,
  "forward": 2888,
  "ape": 2889,
  " mention": 2890,
  " 64": 2891,
  " repe": 2892,
  "umul": 2893,
  "ained": 2894,
  "St": 2895,
  "versal": 2896,
  " table": 2897,
  " infinity": 2898,
  " ring": 2899,
  " far": 2900,
  " types": 2901,
  "agr": 2902,
  "atter": 2903,
  " achieved": 2904,
  "tan": 2905,
  "stit": 2906,
  "fer": 2907,
  " overall": 2908,
  "iform": 2909,
  " sinθ": 2910,
  " cosθ": 2911,
  " pie": 2912,
  " physics": 2913,
  " assume": 2914,
  " typically": 2915,
  " decay": 2916,
  "ands": 2917,
  "  \n": 2918,
  "osp": 2919,
  " 27": 2920,
  " image": 2921,
  " As": 2922,
  "hip": 2923,
  " distances": 2924,
  "NA": 2925,
  " alternative": 2926,
  "81": 2927,
  " expansion": 2928,
  "ared": 2929,
  "$$$-": 2930,
  "                ": 2931,
  " bonds": 2932,
  " special": 2933,
  " internal": 2934,
  " relations": 2935,
  "oc": 2936,
  " asks": 2937,
  "ium": 2938,
  " reflection": 2939,
  "aring": 2940,
  " attack": 2941,
  " meters": 2942,
  " prior": 2943,
  ")}": 2944,
  " 256": 2945,
  " goes": 2946,
  " equilibrium": 2947,
  " underst": 2948,
  "How": 2949,
  "lusion": 2950,
  "candidate": 2951,
  "spe": 2952,
  "Total": 2953,
  " med": 2954,
  " $$$\\": 2955,
  " minutes": 2956,
  " results": 2957,
  " '.": 2958,
  "ificant": 2959,
  " relativ": 2960,
  " project": 2961,
  " changing": 2962,
  " polygon": 2963,
  "]:": 2964,
  "vent": 2965,
  "Put": 2966,
  " distribution": 2967,
  "bf": 2968,
  " compound": 2969,
  "OH": 2970,
  "assuming": 2971,
  " body": 2972,
  " sa": 2973,
  " decreasing": 2974,
  " decomp": 2975,
  "Looking": 2976,
  " active": 2977,
  "lose": 2978,
  " properties": 2979,
  " \\,": 2980,
  " ion": 2981,
  " trick": 2982,
  " Read": 2983,
  "}(": 2984,
  " hit": 2985,
  "dx": 2986,
  " neighbor": 2987,
  "ople": 2988,
  "}{\\": 2989,
  " arriv": 2990,
  " descending": 2991,
  "next": 2992,
  " reflect": 2993,
  " theorem": 2994,
  " radiation": 2995,
  "state": 2996,
  " eigen": 2997,
  " Sub": 2998,
  "199": 2999,
  " medi": 3000,
  " amount": 3001,
  "hand": 3002,
  " photons": 3003,
  "\n    \n   ": 3004,
  " bise": 3005,
  " diagonals": 3006,
  " series": 3007,
  "Sum": 3008,
  " relate": 3009,
  "Processing": 3010,
  " come": 3011,
  " ll": 3012,
  " loss": 3013,
  "^\\": 3014,
  " proper": 3015,
  "izing": 3016,
  " assuming": 3017,
  "atch": 3018,
  " slope": 3019,
  "acu": 3020,
  " significant": 3021,
  "SU": 3022,
  "su": 3023,
  " sphere": 3024,
  "position": 3025,
  " generated": 3026,
  " dy": 3027,
  " combined": 3028,
  " supp": 3029,
  "imet": 3030,
  " draw": 3031,
  "67": 3032,
  " people": 3033,
  " hour": 3034,
  "alind": 3035,
  " '\\": 3036,
  "alindrom": 3037,
  "root": 3038,
  "hy": 3039,
  " Problem": 3040,
  "deg": 3041,
  " eas": 3042,
  " fill": 3043,
  "When": 3044,
  " straightforward": 3045,
  " Example": 3046,
  " year": 3047,
  " store": 3048,
  " 21": 3049,
  " brid": 3050,
  " layer": 3051,
  " fast": 3052,
  "'ll": 3053,
  " analysis": 3054,
  "**.": 3055,
  " reasoning": 3056,
  " (\\(": 3057,
  "Initialize": 3058,
  " BD": 3059,
  "high": 3060,
  " satisfies": 3061,
  "bine": 3062,
  " μ": 3063,
  " quick": 3064,
  "tes": 3065,
  " ax": 3066,
  " away": 3067,
  "enw": 3068,
  " conflic": 3069,
  " desired": 3070,
  "ank": 3071,
  "Your": 3072,
  "Do": 3073,
  " ti": 3074,
  "elect": 3075,
  " matching": 3076,
  " fur": 3077,
  " imply": 3078,
  " adjusted": 3079,
  "enwick": 3080,
  "bug": 3081,
  " ∂": 3082,
  " pract": 3083,
  " contradict": 3084,
  "ipart": 3085,
  "\n\n             ": 3086,
  "ger": 3087,
  " dimensions": 3088,
  " cyc": 3089,
  "str": 3090,
  " limits": 3091,
  " avoid": 3092,
  "bound": 3093,
  " compare": 3094,
  " midpoint": 3095,
  " against": 3096,
  " constraint": 3097,
  " idx": 3098,
  "uth": 3099,
  " okay": 3100,
  "creasing": 3101,
  " recursive": 3102,
  "CH": 3103,
  " ground": 3104,
  " On": 3105,
  "ln": 3106,
  " oxid": 3107,
  "cc": 3108,
  "Else": 3109,
  " hydrogen": 3110,
  " auto": 3111,
  "68": 3112,
  " regions": 3113,
  " someone": 3114,
  " carry": 3115,
  " choosing": 3116,
  " full": 3117,
  " leaf": 3118,
  " kg": 3119,
  " trave": 3120,
  " These": 3121,
  " Total": 3122,
  "  \n  ": 3123,
  " intended": 3124,
  "----": 3125,
  " DSU": 3126,
  " ha": 3127,
  "lation": 3128,
  " become": 3129,
  "Original": 3130,
  " competitive": 3131,
  " thor": 3132,
  " neighbors": 3133,
  " checks": 3134,
  "arrow": 3135,
  " 180": 3136,
  " blocked": 3137,
  " thus": 3138,
  " substitution": 3139,
  " push": 3140,
  " freq": 3141,
  " levels": 3142,
  " gain": 3143,
  " presence": 3144,
  "zy": 3145,
  "cing": 3146,
  " exit": 3147,
  "ams": 3148,
  " counted": 3149,
  " lat": 3150,
  " si": 3151,
  " (√": 3152,
  " palindrom": 3153,
  " Mo": 3154,
  " compress": 3155,
  "ene": 3156,
  " wall": 3157,
  "amil": 3158,
  " mult": 3159,
  " Please": 3160,
  ")-": 3161,
  " multiplic": 3162,
  " fit": 3163,
  " brack": 3164,
  "decreasing": 3165,
  " atm": 3166,
  "top": 3167,
  " partial": 3168,
  " minimize": 3169,
  "emory": 3170,
  "quid": 3171,
  " division": 3172,
  " static": 3173,
  " provided": 3174,
  " text": 3175,
  " solid": 3176,
  " There": 3177,
  " tower": 3178,
  " Precompute": 3179,
  " combining": 3180,
  " identify": 3181,
  "ND": 3182,
  "second": 3183,
  "scill": 3184,
  " thorough": 3185,
  " entries": 3186,
  "ye": 3187,
  " OR": 3188,
  " indu": 3189,
  "anation": 3190,
  " While": 3191,
  " prints": 3192,
  "cum": 3193,
  "parent": 3194,
  " partition": 3195,
  " cancel": 3196,
  " At": 3197,
  "Memory": 3198,
  " ).": 3199,
  " integr": 3200,
  "beta": 3201,
  " electrom": 3202,
  " Examples": 3203,
  " oscill": 3204,
  " lamp": 3205,
  "HS": 3206,
  "tions": 3207,
  "Add": 3208,
  "acuum": 3209,
  "og": 3210,
  "ached": 3211,
  " further": 3212,
  "tract": 3213,
  " possibly": 3214,
  " lex": 3215,
  "mid": 3216,
  "77": 3217,
  " heap": 3218,
  " close": 3219,
  "ament": 3220,
  " transfer": 3221,
  " debug": 3222,
  "your": 3223,
  " entry": 3224,
  " $$$(": 3225,
  " sources": 3226,
  "_{\\": 3227,
  "42": 3228,
  "\n                       ": 3229,
  "tonian": 3230,
  " inserting": 3231,
  " near": 3232,
  " wavelength": 3233,
  "degree": 3234,
  "clusion": 3235,
  "vi": 3236,
  " magnitude": 3237,
  " prot": 3238,
  "osition": 3239,
  ":**": 3240,
  "false": 3241,
  " liquid": 3242,
  " Ch": 3243,
  " compared": 3244,
  " Const": 3245,
  " uniform": 3246,
  "Time": 3247,
  " meaning": 3248,
  " city": 3249,
  "ners": 3250,
  "oes": 3251,
  " Re": 3252,
  " propag": 3253,
  "sm": 3254,
  " endl": 3255,
  " covers": 3256,
  "idth": 3257,
  "|.": 3258,
  "Perhaps": 3259,
  " 120": 3260,
  " students": 3261,
  " solving": 3262,
  " contributions": 3263,
  "raints": 3264,
  "65": 3265,
  " amp": 3266,
  " From": 3267,
  "As": 3268,
  " torque": 3269,
  " scalar": 3270,
  " 22": 3271,
  " strict": 3272,
  "ordered": 3273,
  " hole": 3274,
  "non": 3275,
  " 199": 3276,
  " ending": 3277,
  "Con": 3278,
  " bar": 3279,
  "101": 3280,
  " heav": 3281,
  " helpful": 3282,
  "72": 3283,
  " adjacency": 3284,
  " [-": 3285,
  "ered": 3286,
  ")$$$": 3287,
  " orig": 3288,
  " involved": 3289,
  "/√": 3290,
  "aten": 3291,
  " six": 3292,
  " stuck": 3293,
  " expressed": 3294,
  " short": 3295,
  " things": 3296,
  "abo": 3297,
  " mirror": 3298,
  " Note": 3299,
  " fail": 3300,
  "illion": 3301,
  " resistance": 3302,
  " put": 3303,
  "rmal": 3304,
  ")+": 3305,
  " fall": 3306,
  "88": 3307,
  " simplifies": 3308,
  "old": 3309,
  " simple": 3310,
  " dr": 3311,
  " often": 3312,
  " True": 3313,
  "uent": 3314,
  " har": 3315,
  "cin": 3316,
  " subsequent": 3317,
  "{(": 3318,
  " ),": 3319,
  " specify": 3320,
  " satisfied": 3321,
  " open": 3322,
  " counter": 3323,
  "color": 3324,
  " contiguous": 3325,
  " median": 3326,
  " fin": 3327,
  " otherwise": 3328,
  " replace": 3329,
  " regular": 3330,
  " vacuum": 3331,
  "circ": 3332,
  "lambda": 3333,
  " \\((": 3334,
  " control": 3335,
  " quickly": 3336,
  " detect": 3337,
  " usage": 3338,
  " going": 3339,
  "arant": 3340,
  " lists": 3341,
  " experim": 3342,
  "xor": 3343,
  "steps": 3344,
  "ts": 3345,
  " configuration": 3346,
  "tie": 3347,
  "arante": 3348,
  " appears": 3349,
  "syn": 3350,
  " guarante": 3351,
  " words": 3352,
  "++;": 3353,
  " action": 3354,
  " lit": 3355,
  "cont": 3356,
  "step": 3357,
  " logic": 3358,
  " 99": 3359,
  " rotating": 3360,
  " expand": 3361,
  "including": 3362,
  " name": 3363,
  " tre": 3364,
  "Third": 3365,
  " shape": 3366,
  "ropy": 3367,
  "stdio": 3368,
  "br": 3369,
  " decrease": 3370,
  " link": 3371,
  "sync": 3372,
  " principle": 3373,
  " rad": 3374,
  " ions": 3375,
  "mathbf": 3376,
  "ST": 3377,
  "-----": 3378,
  " confusing": 3379,
  "AX": 3380,
  " traversal": 3381,
  " inser": 3382,
  " Fenwick": 3383,
  " emp": 3384,
  " nit": 3385,
  "ome": 3386,
  " endpoints": 3387,
  "astic": 3388,
  " ios": 3389,
  "anced": 3390,
  "ones": 3391,
  "lobal": 3392,
  " hyp": 3393,
  "Al": 3394,
  " -=": 3395,
  "lace": 3396,
  "ullptr": 3397,
  " mentions": 3398,
  " mess": 3399,
  "41": 3400,
  "etime": 3401,
  "special": 3402,
  "ithmetic": 3403,
  "implies": 3404,
  " precomp": 3405,
  " parameter": 3406,
  "YES": 3407,
  " ensures": 3408,
  " origin": 3409,
  "Next": 3410,
  "hemat": 3411,
  "imeter": 3412,
  " CO": 3413,
  "oks": 3414,
  " inner": 3415,
  " monst": 3416,
  "ifically": 3417,
  " bipart": 3418,
  "Row": 3419,
  " orbital": 3420,
  " lie": 3421,
  " collision": 3422,
  " rectangles": 3423,
  " _": 3424,
  " They": 3425,
  "group": 3426,
  " molecules": 3427,
  " atmosp": 3428,
  " 26": 3429,
  " primary": 3430,
  "floor": 3431,
  "day": 3432,
  " multi": 3433,
  "43": 3434,
  " maintain": 3435,
  " loc": 3436,
  " transformation": 3437,
  " Po": 3438,
  "distance": 3439,
  "aby": 3440,
  " derived": 3441,
  "ally": 3442,
  " longest": 3443,
  "ca": 3444,
  "9999": 3445,
  "ips": 3446,
  " processes": 3447,
  " thermal": 3448,
  " mechanics": 3449,
  " observer": 3450,
  "bl": 3451,
  " weak": 3452,
  " span": 3453,
  "85": 3454,
  "thing": 3455,
  "exp": 3456,
  " capt": 3457,
  "aneous": 3458,
  "atives": 3459,
  " priority": 3460,
  "AC": 3461,
  "dep": 3462,
  " ||": 3463,
  " Vas": 3464,
  " refe": 3465,
  "cout": 3466,
  " respon": 3467,
  " γ": 3468,
  " AND": 3469,
  "block": 3470,
  "Test": 3471,
  " causes": 3472,
  " balls": 3473,
  " Given": 3474,
  " $$$[": 3475,
  " share": 3476,
  "lockwise": 3477,
  "use": 3478,
  " strictly": 3479,
  "mol": 3480,
  " concentration": 3481,
  "man": 3482,
  ",...": 3483,
  " splitting": 3484,
  "litu": 3485,
  "....": 3486,
  " described": 3487,
  " ir": 3488,
  " arithmetic": 3489,
  "car": 3490,
  "ega": 3491,
  " simul": 3492,
  " hull": 3493,
  "stdc": 3494,
  " He": 3495,
  " tensor": 3496,
  " New": 3497,
  " duplicates": 3498,
  "geq": 3499,
  " Sort": 3500,
  " ∈": 3501,
  " substitute": 3502,
  "());": 3503,
  "auto": 3504,
  "lor": 3505,
  " applic": 3506,
  " circular": 3507,
  " inert": 3508,
  " sizes": 3509,
  " circu": 3510,
  " rearr": 3511,
  " concept": 3512,
  "[(": 3513,
  "ages": 3514,
  "nullptr": 3515,
  "depth": 3516,
  " Constraints": 3517,
  " mex": 3518,
  " δ": 3519,
  " selecting": 3520,
  "wo": 3521,
  ")\\)": 3522,
  "47": 3523,
  " Te": 3524,
  "jug": 3525,
  "arter": 3526,
  " mathemat": 3527,
  " thoroughly": 3528,
  " self": 3529,
  " molecule": 3530,
  " meg": 3531,
  "values": 3532,
  "))/": 3533,
  "95": 3534,
  " skip": 3535,
  " shows": 3536,
  " occurrences": 3537,
  "oring": 3538,
  "ldots": 3539,
  " flipping": 3540,
  " cop": 3541,
  " having": 3542,
  "().": 3543,
  "However": 3544,
  "abytes": 3545,
  " transformed": 3546,
  " metric": 3547,
  "string": 3548,
  " xi": 3549,
  "Analyze": 3550,
  " algorithmic": 3551,
  " objects": 3552,
  " megabytes": 3553,
  " reduced": 3554,
  " spring": 3555,
  " Lo": 3556,
  " assumption": 3557,
  "logical": 3558,
  " clear": 3559,
  "positions": 3560,
  " obt": 3561,
  "ification": 3562,
  " trees": 3563,
  " medium": 3564,
  " pur": 3565,
  " Perhaps": 3566,
  " produce": 3567,
  " spac": 3568,
  " labe": 3569,
  "46": 3570,
  " explanation": 3571,
  " tension": 3572,
  " identity": 3573,
  " setting": 3574,
  "eft": 3575,
  " bran": 3576,
  "ery": 3577,
  " boundary": 3578,
  " relation": 3579,
  "aries": 3580,
  "loye": 3581,
  "ites": 3582,
  " whose": 3583,
  " areas": 3584,
  " Cl": 3585,
  " global": 3586,
  " forming": 3587,
  " amplitu": 3588,
  "ifth": 3589,
  "AD": 3590,
  " √(": 3591,
  " handled": 3592,
  " dimension": 3593,
  "++,": 3594,
  " composite": 3595,
  " contradicts": 3596,
  " gap": 3597,
  "undy": 3598,
  "'(": 3599,
  "\";": 3600,
  " stable": 3601,
  " ancestor": 3602,
  "tep": 3603,
  "sel": 3604,
  " Law": 3605,
  "111": 3606,
  " DA": 3607,
  " residues": 3608,
  " spacetime": 3609,
  " forward": 3610,
  " ÷": 3611,
  "rel": 3612,
  "125": 3613,
  " semic": 3614,
  "ops": 3615,
  "cending": 3616,
  "type": 3617,
  "path": 3618,
  " physical": 3619,
  "++)": 3620,
  "phi": 3621,
  "ima": 3622,
  " particular": 3623,
  " rotated": 3624,
  " App": 3625,
  "^-": 3626,
  "sh": 3627,
  " ψ": 3628,
  " mut": 3629,
  " Na": 3630,
  "adj": 3631,
  "};": 3632,
  " challeng": 3633,
  "igned": 3634,
  "of": 3635,
  "ily": 3636,
  "}$$$": 3637,
  " beta": 3638,
  " circum": 3639,
  "psi": 3640,
  " (!": 3641,
  " initially": 3642,
  " station": 3643,
  " mic": 3644,
  " knight": 3645,
  " differently": 3646,
  ",\"": 3647,
  " directed": 3648,
  " IN": 3649,
  " entropy": 3650,
  "split": 3651,
  " turns": 3652,
  " dest": 3653,
  " conjug": 3654,
  "andom": 3655,
  " bridge": 3656,
  "alled": 3657,
  "raph": 3658,
  " decimal": 3659,
  "tho": 3660,
  " bool": 3661,
  "base": 3662,
  "('": 3663,
  " maximal": 3664,
  "aking": 3665,
  " happens": 3666,
  " rele": 3667,
  " mix": 3668,
  " gamma": 3669,
  "quation": 3670,
  "lin": 3671,
  " width": 3672,
  " guaranteed": 3673,
  " insight": 3674,
  " practice": 3675,
  "olution": 3676,
  " chem": 3677,
  "]);": 3678,
  " congr": 3679,
  " dot": 3680,
  " grow": 3681,
  " Co": 3682,
  "333": 3683,
  " complexity": 3684,
  " hypot": 3685,
  " confusion": 3686,
  " emit": 3687,
  "###": 3688,
  " summ": 3689,
  "rodu": 3690,
  "edy": 3691,
  " parameters": 3692,
  " absorb": 3693,
  " palindrome": 3694,
  " Col": 3695,
  " rational": 3696,
  " fold": 3697,
  "duction": 3698,
  " recurrence": 3699,
  "Start": 3700,
  " cub": 3701,
  "√(": 3702,
  "hedron": 3703,
  " leaving": 3704,
  " induced": 3705,
  " CH": 3706,
  " possibility": 3707,
  " electromagnetic": 3708,
  " indicates": 3709,
  "quad": 3710,
  " bul": 3711,
  " alt": 3712,
  " score": 3713,
  " multiset": 3714,
  "ability": 3715,
  " reduce": 3716,
  " conver": 3717,
  " jump": 3718,
  " gets": 3719,
  "me": 3720,
  " didn": 3721,
  " imag": 3722,
  " import": 3723,
  " ign": 3724,
  " closest": 3725,
  "lon": 3726,
  " Rem": 3727,
  " circles": 3728,
  " Here": 3729,
  " faster": 3730,
  " outcom": 3731,
  "rimin": 3732,
  " ide": 3733,
  " qubit": 3734,
  "coordin": 3735,
  ")!": 3736,
  " iss": 3737,
  " respectively": 3738,
  " Unless": 3739,
  "section": 3740,
  " handling": 3741,
  " train": 3742,
  " chord": 3743,
  "rightarrow": 3744,
  " 500": 3745,
  "]).": 3746,
  " property": 3747,
  " containing": 3748,
  " parents": 3749,
  "stre": 3750,
  "riminant": 3751,
  "dfrac": 3752,
  "ged": 3753,
  " called": 3754,
  " residue": 3755,
  ")|": 3756,
  " heavy": 3757,
  "apor": 3758,
  " amb": 3759,
  "58": 3760,
  " Sol": 3761,
  "bitr": 3762,
  "else": 3763,
  " bro": 3764,
  "last": 3765,
  "<=": 3766,
  " circuit": 3767,
  " proton": 3768,
  " quadril": 3769,
  " textbo": 3770,
  " Hamil": 3771,
  " corner": 3772,
  " reaches": 3773,
  " involving": 3774,
  "aut": 3775,
  "incre": 3776,
  "edge": 3777,
  "add": 3778,
  " 80": 3779,
  "ccording": 3780,
  " concaten": 3781,
  " Only": 3782,
  "partial": 3783,
  " []": 3784,
  " ((": 3785,
  "pairs": 3786,
  " xy": 3787,
  " central": 3788,
  " greedy": 3789,
  " simplify": 3790,
  " increased": 3791,
  " leave": 3792,
  " exch": 3793,
  "igible": 3794,
  " swapping": 3795,
  " creating": 3796,
  " effects": 3797,
  "by": 3798,
  " random": 3799,
  " vi": 3800,
  " moved": 3801,
  "wr": 3802,
  " ascending": 3803,
  "enerate": 3804,
  "\\):": 3805,
  "$,": 3806,
  " tet": 3807,
  " representation": 3808,
  "edges": 3809,
  " goal": 3810,
  " arbitr": 3811,
  "itionally": 3812,
  "actor": 3813,
  "appro": 3814,
  " relationship": 3815,
  " flips": 3816,
  " systems": 3817,
  " later": 3818,
  " mode": 3819,
  "ox": 3820,
  "120": 3821,
  " faces": 3822,
  " DNA": 3823,
  " bi": 3824,
  " setup": 3825,
  "value": 3826,
  " 49": 3827,
  " geometric": 3828,
  " hours": 3829,
  " star": 3830,
  "ends": 3831,
  " invari": 3832,
  " frequencies": 3833,
  " relativity": 3834,
  " kept": 3835,
  " insertion": 3836,
  " updated": 3837,
  "check": 3838,
  " 35": 3839,
  "date": 3840,
  " imm": 3841,
  " local": 3842,
  " challenging": 3843,
  " outputs": 3844,
  "gcd": 3845,
  " 23": 3846,
  " perimeter": 3847,
  "gments": 3848,
  "\n\n                   ": 3849,
  "atures": 3850,
  " contradiction": 3851,
  " triplets": 3852,
  " curr": 3853,
  " 70": 3854,
  "possible": 3855,
  "go": 3856,
  " phr": 3857,
  "amp": 3858,
  " flo": 3859,
  " 31": 3860,
  " fluid": 3861,
  " ρ": 3862,
  " inversion": 3863,
  "hing": 3864,
  "angled": 3865,
  " employe": 3866,
  " wire": 3867,
  "ifting": 3868,
  "children": 3869,
  " amplitude": 3870,
  " iteration": 3871,
  " post": 3872,
  "soci": 3873,
  " ice": 3874,
  " million": 3875,
  " mathematical": 3876,
  " ensuring": 3877,
  " exceeds": 3878,
  " introdu": 3879,
  " causing": 3880,
  "84": 3881,
  "aint": 3882,
  " trail": 3883,
  "$.": 3884,
  "Right": 3885,
  " centers": 3886,
  "vity": 3887,
  " -\\": 3888,
  " peak": 3889,
  "emp": 3890,
  " old": 3891,
  "alculate": 3892,
  " her": 3893,
  " interactions": 3894,
  " Gr": 3895,
  " Hamiltonian": 3896,
  " items": 3897,
  "fficult": 3898,
  " response": 3899,
  "vable": 3900,
  "63": 3901,
  "yr": 3902,
  "digits": 3903,
  " transl": 3904,
  " None": 3905,
  " ideal": 3906,
  " quadrilateral": 3907,
  " roll": 3908,
  " difficult": 3909,
  "has": 3910,
  "iling": 3911,
  " semicir": 3912,
  " unordered": 3913,
  " electro": 3914,
  "'ve": 3915,
  " rob": 3916,
  "vant": 3917,
  " multiplying": 3918,
  "rin": 3919,
  " gaps": 3920,
  " Is": 3921,
  " passing": 3922,
  "amin": 3923,
  " yet": 3924,
  "69": 3925,
  " accur": 3926,
  " addition": 3927,
  "bers": 3928,
  "\n\n                  ": 3929,
  " decomposition": 3930,
  " foc": 3931,
  " finite": 3932,
  " spanning": 3933,
  " 29": 3934,
  " delete": 3935,
  "wor": 3936,
  " lamps": 3937,
  " Qu": 3938,
  " complement": 3939,
  "dium": 3940,
  " Sp": 3941,
  "apped": 3942,
  " rule": 3943,
  "stream": 3944,
  " games": 3945,
  " arrival": 3946,
  " observation": 3947,
  "**,": 3948,
  " Once": 3949,
  "ivide": 3950,
  " teams": 3951,
  "pm": 3952,
  "dim": 3953,
  " ortho": 3954,
  " discre": 3955,
  " ∫": 3956,
  " neutral": 3957,
  " leftmost": 3958,
  "hal": 3959,
  "fre": 3960,
  " cyclic": 3961,
  " operators": 3962,
  " esc": 3963,
  " worst": 3964,
  "]/": 3965,
  " fifth": 3966,
  " 2000": 3967,
  " Initialize": 3968,
  "CO": 3969,
  " selection": 3970,
  " tetra": 3971,
  " strength": 3972,
  " Σ": 3973,
  " species": 3974,
  "ores": 3975,
  "selves": 3976,
  " deletions": 3977,
  " mg": 3978,
  "xi": 3979,
  " coverage": 3980,
  " hex": 3981,
  " oxidation": 3982,
  "89": 3983,
  " triples": 3984,
  " cities": 3985,
  "ully": 3986,
  "ference": 3987,
  "jor": 3988,
  " spread": 3989,
  " Process": 3990,
  " conservation": 3991,
  "enz": 3992,
  "Exp": 3993,
  " continuous": 3994,
  "ission": 3995,
  "utom": 3996,
  " Pl": 3997,
  "temp": 3998,
  " accumul": 3999,
  " drop": 4000,
  " bracket": 4001,
  " neutron": 4002,
  "lower": 4003,
  " inputs": 4004,
  " scenarios": 4005,
  "oud": 4006,
  "ni": 4007,
  " influ": 4008,
  " sal": 4009,
  " legs": 4010,
  " combine": 4011,
  " Fe": 4012,
  "abc": 4013,
  "ru": 4014,
  "parity": 4015,
  " geometry": 4016,
  " subtracting": 4017,
  " pul": 4018,
  " masses": 4019,
  "overl": 4020,
  " trape": 4021,
  " trapez": 4022,
  "You": 4023,
  " themselves": 4024,
  " rightmost": 4025,
  " specifically": 4026,
  "approx": 4027,
  "stituting": 4028,
  "     ": 4029,
  "ensive": 4030,
  "atial": 4031,
  " applies": 4032,
  " exponential": 4033,
  "ba": 4034,
  " beha": 4035,
  "auge": 4036,
  "uc": 4037,
  "|=": 4038,
  "sion": 4039,
  " classical": 4040,
  "Step": 4041,
  "element": 4042,
  "pole": 4043,
  " section": 4044,
  "Find": 4045,
  " rather": 4046,
  " clust": 4047,
  " Ed": 4048,
  " gues": 4049,
  " '*": 4050,
  " shell": 4051,
  " DE": 4052,
  " altitude": 4053,
  " roads": 4054,
  " phi": 4055,
  " universe": 4056,
  " sulf": 4057,
  "Left": 4058,
  " parabo": 4059,
  "?\"": 4060,
  " Lagr": 4061,
  " Use": 4062,
  " False": 4063,
  " 48": 4064,
  " reactions": 4065,
  " flux": 4066,
  "lop": 4067,
  "omega": 4068,
  " weights": 4069,
  " tasks": 4070,
  "ider": 4071,
  " corners": 4072,
  "radi": 4073,
  "yes": 4074,
  " precise": 4075,
  "same": 4076,
  "vir": 4077,
  "What": 4078,
  "]$$$": 4079,
  " trapezoid": 4080,
  " effective": 4081,
  " aren": 4082,
  " arbitrary": 4083,
  " 300": 4084,
  "quired": 4085,
  " boxes": 4086,
  " \\\\": 4087,
  " tricky": 4088,
  " hum": 4089,
  " confused": 4090,
  "down": 4091,
  "ios": 4092,
  "aus": 4093,
  " suppos": 4094,
  "clear": 4095,
  " dom": 4096,
  " micro": 4097,
  " Even": 4098,
  " [(": 4099,
  " triple": 4100,
  "cm": 4101,
  "}+": 4102,
  "05": 4103,
  " phen": 4104,
  " Vasya": 4105,
  "]]": 4106,
  " support": 4107,
  " friends": 4108,
  " checked": 4109,
  " outer": 4110,
  " measured": 4111,
  " Using": 4112,
  " song": 4113,
  " orient": 4114,
  "nu": 4115,
  " bases": 4116,
  " hard": 4117,
  "vis": 4118,
  " spatial": 4119,
  "--)": 4120,
  "uild": 4121,
  " Comp": 4122,
  "/∂": 4123,
  "BC": 4124,
  "cup": 4125,
  "Implement": 4126,
  "specially": 4127,
  " mechanism": 4128,
  "\")": 4129,
  " expressions": 4130,
  " autom": 4131,
  "exclu": 4132,
  "500": 4133,
  " acting": 4134,
  " eliminate": 4135,
  " curv": 4136,
  "ceil": 4137,
  " creates": 4138,
  " sca": 4139,
  "under": 4140,
  "emplace": 4141,
  "amine": 4142,
  "curr": 4143,
  "57": 4144,
  "heap": 4145,
  " Well": 4146,
  "uel": 4147,
  " buy": 4148,
  " sorting": 4149,
  " supposed": 4150,
  " rece": 4151,
  " visible": 4152,
  "ler": 4153,
  " rotate": 4154,
  " caref": 4155,
  " σ": 4156,
  " protons": 4157,
  " nitro": 4158,
  " hyper": 4159,
  "ligible": 4160,
  " guess": 4161,
  " rod": 4162,
  " easier": 4163,
  " anything": 4164,
  "mathrm": 4165,
  "244": 4166,
  "suffix": 4167,
  "Input": 4168,
  " bisector": 4169,
  "Num": 4170,
  " definition": 4171,
  " discriminant": 4172,
  " consistent": 4173,
  "cert": 4174,
  " balanced": 4175,
  "counts": 4176,
  "arrays": 4177,
  " smarter": 4178,
  " wants": 4179,
  " especially": 4180,
  " tech": 4181,
  "tical": 4182,
  "increasing": 4183,
  " understand": 4184,
  "eterm": 4185,
  " few": 4186,
  " typical": 4187,
  "rev": 4188,
  "logy": 4189,
  "bered": 4190,
  "rentz": 4191,
  " slight": 4192,
  "pop": 4193,
  "orter": 4194,
  " nothing": 4195,
  " derivatives": 4196,
  "sol": 4197,
  "91": 4198,
  " student": 4199,
  " gauge": 4200,
  " allowing": 4201,
  " stay": 4202,
  " est": 4203,
  " MST": 4204,
  " consists": 4205,
  " spher": 4206,
  "angular": 4207,
  " immedi": 4208,
  " Team": 4209,
  " layers": 4210,
  " –": 4211,
  " charged": 4212,
  "available": 4213,
  " orbitals": 4214,
  "igma": 4215,
  " letter": 4216,
  " inclusion": 4217,
  "required": 4218,
  " fix": 4219,
  " seat": 4220,
  "fact": 4221,
  " metal": 4222,
  " grad": 4223,
  " bad": 4224,
  "MAX": 4225,
  "ibility": 4226,
  " chains": 4227,
  " cat": 4228,
  " ri": 4229,
  " piece": 4230,
  " green": 4231,
  " simp": 4232,
  "range": 4233,
  " negligible": 4234,
  " pop": 4235,
  "electric": 4236,
  "ud": 4237,
  "hite": 4238,
  " '?": 4239,
  " curvature": 4240,
  "fty": 4241,
  "':": 4242,
  "mer": 4243,
  " varying": 4244,
  "°)": 4245,
  " tight": 4246,
  " AM": 4247,
  "rors": 4248,
  "92": 4249,
  " denomin": 4250,
  "rea": 4251,
  " calculating": 4252,
  " Max": 4253,
  "infty": 4254,
  " =-": 4255,
  " interpre": 4256,
  "nge": 4257,
  " automat": 4258,
  " years": 4259,
  " EM": 4260,
  " counting": 4261,
  " separated": 4262,
  "omb": 4263,
  " head": 4264,
  " relates": 4265,
  "undament": 4266,
  " velocities": 4267,
  " scale": 4268,
  " computational": 4269,
  "vec": 4270,
  " closed": 4271,
  " dark": 4272,
  " expects": 4273,
  " conflicting": 4274,
  "product": 4275,
  " updates": 4276,
  "kn": 4277,
  "414": 4278,
  "dots": 4279,
  " ->": 4280,
  " computing": 4281,
  " tracking": 4282,
  "Re": 4283,
  "roid": 4284,
  " challenge": 4285,
  " apart": 4286,
  " interact": 4287,
  " trailing": 4288,
  "viron": 4289,
  " bos": 4290,
  "ype": 4291,
  "coordinate": 4292,
  "arithm": 4293,
  " rank": 4294,
  " ship": 4295,
  " dividing": 4296,
  "plus": 4297,
  " knowing": 4298,
  " moles": 4299,
  "osph": 4300,
  "licit": 4301,
  " numer": 4302,
  " conclusion": 4303,
  "certaint": 4304,
  " subtrees": 4305,
  "97": 4306,
  " nor": 4307,
  " (|": 4308,
  " subarrays": 4309,
  " working": 4310,
  " pure": 4311,
  "center": 4312,
  " tou": 4313,
  "correct": 4314,
  " Lorentz": 4315,
  " bring": 4316,
  " outline": 4317,
  "rices": 4318,
  " presented": 4319,
  " Case": 4320,
  " breed": 4321,
  " replaced": 4322,
  "before": 4323,
  " De": 4324,
  "heric": 4325,
  " cloud": 4326,
  "rical": 4327,
  "flow": 4328,
  " logarithm": 4329,
  " tack": 4330,
  " basic": 4331,
  " Di": 4332,
  " wal": 4333,
  " vir": 4334,
  " masks": 4335,
  "ssign": 4336,
  "ises": 4337,
  " environ": 4338,
  " rearrange": 4339,
  "ancy": 4340,
  " pH": 4341,
  " Gaus": 4342,
  "Sol": 4343,
  "ove": 4344,
  "elements": 4345,
  " compar": 4346,
  "because": 4347,
  "uck": 4348,
  " tackle": 4349,
  " measurement": 4350,
  "$$$$": 4351,
  " dipole": 4352,
  " Both": 4353,
  " congruent": 4354,
  " fundament": 4355,
  "61": 4356,
  "reate": 4357,
  " hits": 4358,
  " shortest": 4359,
  "rho": 4360,
  " experiment": 4361,
  " assumes": 4362,
  " grundy": 4363,
  " ·": 4364,
  " reson": 4365,
  " optim": 4366,
  " sodium": 4367,
  "ched": 4368,
  ")**": 4369,
  " analyze": 4370,
  " intersects": 4371,
  " contributing": 4372,
  "ymmet": 4373,
  " anti": 4374,
  " won": 4375,
  "ah": 4376,
  "dy": 4377,
  "54": 4378,
  " Pet": 4379,
  ")?": 4380,
  " calculations": 4381,
  "uple": 4382,
  " According": 4383,
  " sliding": 4384,
  "It": 4385,
  " lies": 4386,
  " prevent": 4387,
  " DFS": 4388,
  " methyl": 4389,
  "}\\),": 4390,
  "dimension": 4391,
  "mbo": 4392,
  "gress": 4393,
  " wouldn": 4394,
  "Take": 4395,
  " nucleus": 4396,
  " Collect": 4397,
  " excluded": 4398,
  "function": 4399,
  "cket": 4400,
  " beaut": 4401,
  " contraction": 4402,
  " tiles": 4403,
  " spaces": 4404,
  " domain": 4405,
  " bc": 4406,
  " trying": 4407,
  " behavi": 4408,
  "pired": 4409,
  " rewr": 4410,
  ")^(": 4411,
  " Their": 4412,
  "bra": 4413,
  " uncertaint": 4414,
  " 101": 4415,
  " magnet": 4416,
  "1111": 4417,
  " connecting": 4418,
  "white": 4419,
  "001": 4420,
  " saw": 4421,
  " parabola": 4422,
  " capit": 4423,
  " implementing": 4424,
  "hedral": 4425,
  "oh": 4426,
  "def": 4427,
  " AT": 4428,
  "isions": 4429,
  "$$$).": 4430,
  " capacity": 4431,
  "ching": 4432,
  "300": 4433,
  "iting": 4434,
  "ription": 4435,
  " room": 4436,
  "inf": 4437,
  "rate": 4438,
  " stop": 4439,
  "Set": 4440,
  "bar": 4441,
  " swapped": 4442,
  "erest": 4443,
  "aling": 4444,
  "amage": 4445,
  " molecular": 4446,
  " mi": 4447,
  " `": 4448,
  " chemical": 4449,
  "onic": 4450,
  " patterns": 4451,
  " attached": 4452,
  " entirely": 4453,
  "any": 4454,
  " tile": 4455,
  " INF": 4456,
  " pyr": 4457,
  " inspired": 4458,
  "bb": 4459,
  " thing": 4460,
  " reference": 4461,
  " downward": 4462,
  "track": 4463,
  " understanding": 4464,
  " 00": 4465,
  " Sch": 4466,
  " '.'": 4467,
  "ole": 4468,
  "sist": 4469,
  " exchange": 4470,
  "gan": 4471,
  " arg": 4472,
  " solved": 4473,
  " giving": 4474,
  "ivis": 4475,
  " mentioned": 4476,
  "|,": 4477,
  " tetrahedron": 4478,
  " extra": 4479,
  "Assuming": 4480,
  " swit": 4481,
  " carri": 4482,
  "excluding": 4483,
  " DC": 4484,
  " scatter": 4485,
  " quark": 4486,
  "^{\\": 4487,
  " notation": 4488,
  " removal": 4489,
  " ))": 4490,
  "ryst": 4491,
  " pairwise": 4492,
  " controlled": 4493,
  " lens": 4494,
  " tal": 4495,
  "uture": 4496,
  " delet": 4497,
  " carbo": 4498,
  " inversions": 4499,
  "51": 4500,
  " cool": 4501,
  " rounds": 4502,
  " pieces": 4503,
  " approximation": 4504,
  " atmospheric": 4505,
  "atory": 4506,
  "Divide": 4507,
  "353": 4508,
  "black": 4509,
  " hom": 4510,
  "dimensional": 4511,
  " recursively": 4512,
  " Sun": 4513,
  " gl": 4514,
  "hol": 4515,
  "ai": 4516,
  "iostream": 4517,
  " strip": 4518,
  " flowers": 4519,
  " ell": 4520,
  "LL": 4521,
  "hold": 4522,
  " sun": 4523,
  " OH": 4524,
  " slightly": 4525,
  " Tree": 4526,
  "Subtract": 4527,
  " reachable": 4528,
  "radius": 4529,
  " append": 4530,
  " rese": 4531,
  ")≈": 4532,
  " expanding": 4533,
  " connects": 4534,
  " thinking": 4535,
  " behavior": 4536,
  "otes": 4537,
  " shorter": 4538,
  "ives": 4539,
  "indices": 4540,
  " obtained": 4541,
  " bou": 4542,
  "ae": 4543,
  " achieve": 4544,
  "nodes": 4545,
  " determinant": 4546,
  "print": 4547,
  "wap": 4548,
  "87": 4549,
  "ouse": 4550,
  " realize": 4551,
  " 42": 4552,
  " monster": 4553,
  " diction": 4554,
  " clar": 4555,
  "cap": 4556,
  " progress": 4557,
  " future": 4558,
  " materials": 4559,
  "°.": 4560,
  "256": 4561,
  " Assign": 4562,
  " putting": 4563,
  "work": 4564,
  "avor": 4565,
  " determines": 4566,
  " 75": 4567,
  " transformations": 4568,
  " ratios": 4569,
  " war": 4570,
  "ribution": 4571,
  "Here": 4572,
  "etal": 4573,
  "tle": 4574,
  "Answer": 4575,
  "overlapping": 4576,
  " conjugate": 4577,
  " modeled": 4578,
  "eV": 4579,
  " fractions": 4580,
  " diam": 4581,
  " flipped": 4582,
  " rules": 4583,
  "direct": 4584,
  " 37": 4585,
  " conserved": 4586,
  "umulative": 4587,
  " closer": 4588,
  " -√": 4589,
  "__": 4590,
  " collected": 4591,
  "gebra": 4592,
  " rotations": 4593,
  " substitu": 4594,
  " preser": 4595,
  " harmon": 4596,
  " pred": 4597,
  " substituents": 4598,
  "examine": 4599,
  " rooted": 4600,
  " radial": 4601,
  "name": 4602,
  "Com": 4603,
  " exam": 4604,
  " batch": 4605,
  " 81": 4606,
  "pers": 4607,
  " equilateral": 4608,
  "tt": 4609,
  "exclusion": 4610,
  "umin": 4611,
  " spherical": 4612,
  " Ar": 4613,
  " modulus": 4614,
  "known": 4615,
  " matrices": 4616,
  "alu": 4617,
  " Lagrang": 4618,
  " (\\": 4619,
  "144": 4620,
  " lambda": 4621,
  " viol": 4622,
  "subtree": 4623,
  " lowest": 4624,
  " ⟨": 4625,
  " pull": 4626,
  " memo": 4627,
  "term": 4628,
  "IT": 4629,
  " ask": 4630,
  " explicit": 4631,
  " centroid": 4632,
  " pref": 4633,
  " 33": 4634,
  "uler": 4635,
  "war": 4636,
  " periodic": 4637,
  " stress": 4638,
  " surround": 4639,
  " approximate": 4640,
  " 44": 4641,
  " chlor": 4642,
  " summing": 4643,
  " Lagrangian": 4644,
  "}-": 4645,
  " interference": 4646,
  "666": 4647,
  " trig": 4648,
  "energy": 4649,
  " major": 4650,
  " minimized": 4651,
  "level": 4652,
  " clockwise": 4653,
  " Multiply": 4654,
  "find": 4655,
  "light": 4656,
  "imizes": 4657,
  "stitute": 4658,
  "180": 4659,
  " complicates": 4660,
  "gamma": 4661,
  "));": 4662,
  "component": 4663,
  " transm": 4664,
  "osed": 4665,
  " cumulative": 4666,
  "plane": 4667,
  "EX": 4668,
  "ault": 4669,
  " occup": 4670,
  " accordingly": 4671,
  " evalu": 4672,
  " constants": 4673,
  "52": 4674,
  " compressed": 4675,
  " assignment": 4676,
  " KE": 4677,
  " convent": 4678,
  " hexagon": 4679,
  " domino": 4680,
  " precomputed": 4681,
  " recalling": 4682,
  ")}{": 4683,
  " 01": 4684,
  " diagr": 4685,
  " suc": 4686,
  " cryst": 4687,
  "ode": 4688,
  " Up": 4689,
  "sider": 4690,
  ")\\).": 4691,
  " Another": 4692,
  " visual": 4693,
  ")**:": 4694,
  " projection": 4695,
  "tic": 4696,
  "ective": 4697,
  "small": 4698,
  " board": 4699,
  "herent": 4700,
  "Initial": 4701,
  "struct": 4702,
  " First": 4703,
  " ii": 4704,
  " powers": 4705,
  " pack": 4706,
  "cho": 4707,
  " define": 4708,
  " rho": 4709,
  "Sort": 4710,
  " ellip": 4711,
  " replacing": 4712,
  "abs": 4713,
  " flat": 4714,
  " stick": 4715,
  " With": 4716,
  " alternate": 4717,
  "iew": 4718,
  " applicable": 4719,
  " absorption": 4720,
  " excess": 4721,
  " coin": 4722,
  "Pr": 4723,
  " experi": 4724,
  " neutrin": 4725,
  " cru": 4726,
  " stationary": 4727,
  "400": 4728,
  "enzene": 4729,
  " phrased": 4730,
  " designed": 4731,
  "cycle": 4732,
  " curve": 4733,
  "bles": 4734,
  " comparing": 4735,
  " apples": 4736,
  " )=": 4737,
  " sn": 4738,
  " lot": 4739,
  " approaching": 4740,
  " collisions": 4741,
  "when": 4742,
  "na": 4743,
  "freq": 4744,
  " outcome": 4745,
  " HCl": 4746,
  " axes": 4747,
  "alculation": 4748,
  " computationally": 4749,
  "ident": 4750,
  " maintaining": 4751,
  " gases": 4752,
  " uncertainty": 4753,
  "undred": 4754,
  " environment": 4755,
  " carb": 4756,
  ".)": 4757,
  "53": 4758,
  "ady": 4759,
  "2008": 4760,
  "Using": 4761,
  "equiv": 4762,
  " scattering": 4763,
  " unclear": 4764,
  " methods": 4765,
  " stars": 4766,
  "ley": 4767,
  " upwards": 4768,
  " nuclear": 4769,
  "assi": 4770,
  " compounds": 4771,
  " fundamental": 4772,
  "connect": 4773,
  " 999": 4774,
  " Do": 4775,
  " invariant": 4776,
  " '+": 4777,
  " trie": 4778,
  " important": 4779,
  " damage": 4780,
  " 998": 4781,
  " resonance": 4782,
  "Testing": 4783,
  "zing": 4784,
  "hi": 4785,
  " latt": 4786,
  " ħ": 4787,
  " converted": 4788,
  " truth": 4789,
  " changed": 4790,
  "lying": 4791,
  "processed": 4792,
  " alternating": 4793,
  " pent": 4794,
  "ivial": 4795,
  "Equation": 4796,
  " Set": 4797,
  "ern": 4798,
  " --": 4799,
  " associ": 4800,
  " dependencies": 4801,
  "water": 4802,
  "rown": 4803,
  "irect": 4804,
  " Take": 4805,
  "likely": 4806,
  "62": 4807,
  "gging": 4808,
  "625": 4809,
  ".<": 4810,
  " consisting": 4811,
  " broken": 4812,
  "2000": 4813,
  " topo": 4814,
  " capture": 4815,
  "orization": 4816,
  " Pa": 4817,
  " backtrack": 4818,
  " τ": 4819,
  " lose": 4820,
  "insert": 4821,
  " vib": 4822,
  "assive": 4823,
  " -(": 4824,
  " shifted": 4825,
  " issue": 4826,
  "medi": 4827,
  " DAG": 4828,
  " cot": 4829,
  ",...,": 4830,
  "bool": 4831,
  "1²": 4832,
  " currents": 4833,
  ")(-": 4834,
  " similarly": 4835,
  " interest": 4836,
  ")].": 4837,
  "04": 4838,
  "positive": 4839,
  " percent": 4840,
  "Starting": 4841,
  " pen": 4842,
  " upward": 4843,
  " dictionary": 4844,
  " yield": 4845,
  " Can": 4846,
  " him": 4847,
  " never": 4848,
  " mixing": 4849,
  "enominator": 4850,
  " copy": 4851,
  " gradient": 4852,
  "enuse": 4853,
  " signs": 4854,
  "gonal": 4855,
  " factorial": 4856,
  "lected": 4857,
  " simplified": 4858,
  "defin": 4859,
  "say": 4860,
  " relativistic": 4861,
  "{-": 4862,
  " algebra": 4863,
  " MEX": 4864,
  "\\))": 4865,
  "board": 4866,
  " ci": 4867,
  " spect": 4868,
  " contact": 4869,
  " sys": 4870,
  "itely": 4871,
  "veral": 4872,
  " exc": 4873,
  " stronger": 4874,
  " symbo": 4875,
  " extrem": 4876,
  "fs": 4877,
  " acts": 4878,
  "etween": 4879,
  "Factor": 4880,
  " storing": 4881,
  "rows": 4882,
  " branch": 4883,
  "python": 4884,
  "Hence": 4885,
  " accelerating": 4886,
  "balance": 4887,
  " cart": 4888,
  " influence": 4889,
  " multiplication": 4890,
  " commut": 4891,
  "joint": 4892,
  " placing": 4893,
  " acidic": 4894,
  "kg": 4895,
  " robot": 4896,
  " partitions": 4897,
  "upper": 4898,
  " potentials": 4899,
  "sha": 4900,
  "primes": 4901,
  "reshold": 4902,
  "lide": 4903,
  "atible": 4904,
  "cop": 4905,
  " Create": 4906,
  " located": 4907,
  " mol": 4908,
  "%,": 4909,
  " got": 4910,
  " converting": 4911,
  " irre": 4912,
  " lateral": 4913,
  " whole": 4914,
  " integrating": 4915,
  " eigenvalues": 4916,
  " expectation": 4917,
  "ior": 4918,
  " capacitor": 4919,
  " purp": 4920,
  " Petya": 4921,
  "stead": 4922,
  "elta": 4923,
  " imagine": 4924,
  " inequalities": 4925,
  " version": 4926,
  " helps": 4927,
  "ev": 4928,
  " marked": 4929,
  " Newton": 4930,
  " formation": 4931,
  " covering": 4932,
  "etermine": 4933,
  " several": 4934,
  " expensive": 4935,
  "74": 4936,
  "93": 4937,
  "roy": 4938,
  " arises": 4939,
  " early": 4940,
  " atomic": 4941,
  "ingu": 4942,
  "amid": 4943,
  " really": 4944,
  " rotational": 4945,
  " focus": 4946,
  " interpret": 4947,
  " phosph": 4948,
  "quare": 4949,
  " gene": 4950,
  " cow": 4951,
  "Pro": 4952,
  " ∇": 4953,
  " minions": 4954,
  "pow": 4955,
  " hypotenuse": 4956,
  "underst": 4957,
  " extended": 4958,
  " sole": 4959,
  " sec": 4960,
  " bind": 4961,
  " deleted": 4962,
  "ledge": 4963,
  " tracks": 4964,
  " ag": 4965,
  "lt": 4966,
  " lost": 4967,
  " minute": 4968,
  " colored": 4969,
  " lattice": 4970,
  " fam": 4971,
  " coprocess": 4972,
  " coprocessor": 4973,
  " ambiguous": 4974,
  "hattan": 4975,
  "two": 4976,
  " escape": 4977,
  " quadrant": 4978,
  " somewhere": 4979,
  " discrep": 4980,
  " shifts": 4981,
  "cell": 4982,
  " multiplicative": 4983,
  " bipartite": 4984,
  "94": 4985,
  " ancestors": 4986,
  " plas": 4987,
  " bipartition": 4988,
  "}_": 4989,
  " subsegment": 4990,
  "').": 4991,
  " description": 4992,
  " core": 4993,
  "pite": 4994,
  "states": 4995,
  " stops": 4996,
  "inear": 4997,
  " diamond": 4998,
  "\n\n                                    ": 4999,
  " tell": 5000,
  "ists": 5001,
  "umps": 5002,
  "run": 5003,
  ">=": 5004,
  "ethyl": 5005,
  " rou": 5006,
  " molar": 5007,
  " Incorrect": 5008,
  " maps": 5009,
  "86": 5010,
  " differential": 5011,
  " diver": 5012,
  " Type": 5013,
  "ague": 5014,
  "And": 5015,
  " container": 5016,
  " breaking": 5017,
  "  \n ": 5018,
  " suffixes": 5019,
  " repeated": 5020,
  " referring": 5021,
  " invert": 5022,
  " endpoint": 5023,
  " 400": 5024,
  " passed": 5025,
  " persp": 5026,
  " clarify": 5027,
  " created": 5028,
  " assignments": 5029,
  " maximized": 5030,
  " harmonic": 5031,
  " paper": 5032,
  " AP": 5033,
  "without": 5034,
  " cone": 5035,
  "infin": 5036,
  "\n ": 5037,
  "amina": 5038,
  " organ": 5039,
  " pus": 5040,
  "rations": 5041,
  " aligns": 5042,
  " Start": 5043,
  " misunderst": 5044,
  " energ": 5045,
  ")$$$.": 5046,
  " varies": 5047,
  " immediately": 5048,
  " observed": 5049,
  " paired": 5050,
  "ood": 5051,
  "neq": 5052,
  " wi": 5053,
  " towers": 5054,
  "ogen": 5055,
  " ')": 5056,
  " cylin": 5057,
  " cylinder": 5058,
  "Output": 5059,
  "sy": 5060,
  " dealing": 5061,
  " hyperbo": 5062,
  " constructed": 5063,
  " Editorial": 5064,
  "Co": 5065,
  " activ": 5066,
  "normal": 5067,
  " latest": 5068,
  " rough": 5069,
  " inertia": 5070,
  "73": 5071,
  " chrom": 5072,
  "vice": 5073,
  " suit": 5074,
  " accurate": 5075,
  " ferm": 5076,
  " temperatures": 5077,
  " bisect": 5078,
  " flag": 5079,
  "final": 5080,
  " situ": 5081,
  "ellow": 5082,
  " sink": 5083,
  " batter": 5084,
  "RT": 5085,
  "ulation": 5086,
  " carbons": 5087,
  " destroy": 5088,
  "sian": 5089,
  " quite": 5090,
  "244353": 5091,
  "query": 5092,
  "free": 5093,
  " concatenated": 5094,
  "urb": 5095,
  "olar": 5096,
  "2015": 5097,
  " eth": 5098,
  " emitted": 5099,
  " perspective": 5100,
  " semicircle": 5101,
  "ped": 5102,
  "iation": 5103,
  "abil": 5104,
  " questions": 5105,
  " vapor": 5106,
  " intensity": 5107,
  " Update": 5108,
  " properly": 5109,
  "visited": 5110,
  "Term": 5111,
  " OA": 5112,
  " parametr": 5113,
  "uration": 5114,
  " pict": 5115,
  "lea": 5116,
  " \\))": 5117,
  " 110": 5118,
  " safe": 5119,
  " pile": 5120,
  " reduction": 5121,
  "110": 5122,
  " '>": 5123,
  " grams": 5124,
  " Man": 5125,
  " hasn": 5126,
  " configurations": 5127,
  "123": 5128,
  " message": 5129,
  " vague": 5130,
  "rest": 5131,
  "pin": 5132,
  ">(": 5133,
  " polarization": 5134,
  " loops": 5135,
  " keeping": 5136,
  "inters": 5137,
  " lifting": 5138,
  " boxed": 5139,
  " modify": 5140,
  "trans": 5141,
  "hesis": 5142,
  "Possible": 5143,
  "stein": 5144,
  " discrepancy": 5145,
  "head": 5146,
  " che": 5147,
  " threshold": 5148,
  " view": 5149,
  " dissol": 5150,
  " past": 5151,
  "celes": 5152,
  "occur": 5153,
  " fuel": 5154,
  " sho": 5155,
  "lim": 5156,
  " limited": 5157,
  " Per": 5158,
  " restriction": 5159,
  " Fib": 5160,
  " pay": 5161,
  "ometric": 5162,
  "istance": 5163,
  " energies": 5164,
  "port": 5165,
  " begin": 5166,
  " samples": 5167,
  " probabilities": 5168,
  "Ed": 5169,
  " enter": 5170,
  "undreds": 5171,
  " winner": 5172,
  " Split": 5173,
  " pointers": 5174,
  "rot": 5175,
  " costs": 5176,
  " RHS": 5177,
  " Generate": 5178,
  " Subtract": 5179,
  " '<": 5180,
  " summon": 5181,
  " identical": 5182,
  " breaks": 5183,
  " dielectric": 5184,
  " 150": 5185,
  "defined": 5186,
  " continues": 5187,
  " reducing": 5188,
  " BIT": 5189,
  " wavefunction": 5190,
  " shown": 5191,
  "ik": 5192,
  " equivalence": 5193,
  " seem": 5194,
  " price": 5195,
  " ra": 5196,
  " NH": 5197,
  "\n     ": 5198,
  " orientation": 5199,
  "omic": 5200,
  " capital": 5201,
  "interval": 5202,
  " substituent": 5203,
  " vice": 5204,
  " Right": 5205,
  "overline": 5206,
  " knowledge": 5207,
  " versa": 5208,
  " access": 5209,
  "']": 5210,
  " deep": 5211,
  "dependent": 5212,
  " orthogonal": 5213,
  "ourth": 5214,
  " Point": 5215,
  " swe": 5216,
  " dilation": 5217,
  " By": 5218,
  " determining": 5219,
  " pyramid": 5220,
  " planes": 5221,
  "terate": 5222,
  " mar": 5223,
  "Delta": 5224,
  " BE": 5225,
  "word": 5226,
  " inertial": 5227,
  " alone": 5228,
  " 5000": 5229,
  " models": 5230,
  " generally": 5231,
  " Hig": 5232,
  " monsters": 5233,
  " comb": 5234,
  " family": 5235,
  " gate": 5236,
  " nm": 5237,
  " iterating": 5238,
  "maybe": 5239,
  "lys": 5240,
  "warz": 5241,
  "Denominator": 5242,
  " seats": 5243,
  " experiments": 5244,
  " absorbed": 5245,
  " loses": 5246,
  "₁²": 5247,
  " seen": 5248,
  "Comp": 5249,
  " ATP": 5250,
  " infect": 5251,
  " isol": 5252,
  "rier": 5253,
  " disk": 5254,
  "iency": 5255,
  "shift": 5256,
  " paint": 5257,
  " isot": 5258,
  "59": 5259,
  " coupl": 5260,
  " brackets": 5261,
  "Alright": 5262,
  "sibly": 5263,
  " radians": 5264,
  " 360": 5265,
  " Euler": 5266,
  " scaling": 5267,
  " depart": 5268,
  "\n\n                            ": 5269,
  "All": 5270,
  " textbook": 5271,
  "ains": 5272,
  "mic": 5273,
  " onto": 5274,
  "els": 5275,
  " instant": 5276,
  " 34": 5277,
  "cosθ": 5278,
  " Cou": 5279,
  "cation": 5280,
  " rail": 5281,
  "eah": 5282,
  "fit": 5283,
  "oy": 5284,
  " rook": 5285,
  " distingu": 5286,
  "cohol": 5287,
  " .": 5288,
  " centered": 5289,
  "\n\n                 ": 5290,
  " bic": 5291,
  " heights": 5292,
  " rolling": 5293,
  " neither": 5294,
  "added": 5295,
  "front": 5296,
  " mixed": 5297,
  " formal": 5298,
  "fl": 5299,
  " gal": 5300,
  " completely": 5301,
  "grid": 5302,
  " topological": 5303,
  "  ": 5304,
  " extreme": 5305,
  "2²": 5306,
  "GM": 5307,
  " cluster": 5308,
  " various": 5309,
  " thick": 5310,
  " unlikely": 5311,
  " dow": 5312,
  " stat": 5313,
  " resistor": 5314,
  " hot": 5315,
  "omen": 5316,
  " reversing": 5317,
  " mechanical": 5318,
  " losing": 5319,
  "Tree": 5320,
  "ctan": 5321,
  "rog": 5322,
  " glass": 5323,
  " computation": 5324,
  " AE": 5325,
  "ey": 5326,
  " Does": 5327,
  " absence": 5328,
  " decide": 5329,
  " SO": 5330,
  " associated": 5331,
  " record": 5332,
  "nto": 5333,
  "_\\": 5334,
  " compression": 5335,
  " heating": 5336,
  "128": 5337,
  " '*'": 5338,
  "Print": 5339,
  " respective": 5340,
  " increments": 5341,
  " 125": 5342,
  " quest": 5343,
  " cosine": 5344,
  " Build": 5345,
  "atorial": 5346,
  " Ph": 5347,
  " structured": 5348,
  " describ": 5349,
  " compatible": 5350,
  " flaw": 5351,
  "lysis": 5352,
  " holes": 5353,
  " solar": 5354,
  " research": 5355,
  " particip": 5356,
  "Also": 5357,
  " prote": 5358,
  " interesting": 5359,
  ")\\),": 5360,
  " plays": 5361,
  " conflict": 5362,
  ")))": 5363,
  " Instead": 5364,
  " 111": 5365,
  "ohn": 5366,
  " removes": 5367,
  " walls": 5368,
  " speeds": 5369,
  " nitrogen": 5370,
  " deque": 5371,
  " whenever": 5372,
  " disjoint": 5373,
  " favor": 5374,
  " scores": 5375,
  " initialized": 5376,
  "how": 5377,
  " Adding": 5378,
  "sed": 5379,
  "105": 5380,
  " dro": 5381,
  " misc": 5382,
  " sector": 5383,
  "dot": 5384,
  "pponent": 5385,
  " downto": 5386,
  " dt": 5387,
  " caused": 5388,
  " argum": 5389,
  " inserted": 5390,
  "sect": 5391,
  " meeting": 5392,
  "FT": 5393,
  " inclusive": 5394,
  "my": 5395,
  " Val": 5396,
  "alculating": 5397,
  " attemp": 5398,
  " 72": 5399,
  "ms": 5400,
  "except": 5401,
  "well": 5402,
  " classes": 5403,
  "ulum": 5404,
  "psilon": 5405,
  "clockwise": 5406,
  "matrix": 5407,
  " places": 5408,
  " visualize": 5409,
  " specified": 5410,
  " math": 5411,
  " simult": 5412,
  " decrement": 5413,
  " elimination": 5414,
  " fails": 5415,
  "IN": 5416,
  " colorings": 5417,
  " 998244353": 5418,
  " alcohol": 5419,
  "\\,": 5420,
  " dihedral": 5421,
  " benzene": 5422,
  " forced": 5423,
  " cavity": 5424,
  "due": 5425,
  "connected": 5426,
  " despite": 5427,
  " oscillator": 5428,
  " format": 5429,
  " ceiling": 5430,
  " beh": 5431,
  " employee": 5432,
  " impact": 5433,
  " textbooks": 5434,
  "71": 5435,
  " planet": 5436,
  " mixt": 5437,
  "inomial": 5438,
  " simply": 5439,
  "related": 5440,
  " numbered": 5441,
  "far": 5442,
  " travel": 5443,
  " ast": 5444,
  " atmosphere": 5445,
  " Manhattan": 5446,
  "xide": 5447,
  " misunderstanding": 5448,
  "Col": 5449,
  " bus": 5450,
  "ipro": 5451,
  "reen": 5452,
  "Ka": 5453,
  " One": 5454,
  " bitmask": 5455,
  "IS": 5456,
  "))=": 5457,
  " pairing": 5458,
  "static": 5459,
  " contexts": 5460,
  "lycar": 5461,
  "erson": 5462,
  " reflected": 5463,
  "invalid": 5464,
  "sets": 5465,
  "ife": 5466,
  " querying": 5467,
  "Combine": 5468,
  " able": 5469,
  " analy": 5470,
  "anol": 5471,
  " battery": 5472,
  "fficiency": 5473,
  " rewritten": 5474,
  " stabil": 5475,
  "):**": 5476,
  " matched": 5477,
  " produces": 5478,
  ")//": 5479,
  "lycarp": 5480,
  " depths": 5481,
  "instein": 5482,
  " rev": 5483,
  " differing": 5484,
  " acute": 5485,
  " requ": 5486,
  "150": 5487,
  " [[": 5488,
  "ubility": 5489,
  "riangle": 5490,
  " effectively": 5491,
  " flight": 5492,
  " bid": 5493,
  "days": 5494,
  " kind": 5495,
  " eng": 5496,
  " explicitly": 5497,
  "erged": 5498,
  " minima": 5499,
  "cot": 5500,
  " SU": 5501,
  " lab": 5502,
  "romatic": 5503,
  " instruct": 5504,
  " doing": 5505,
  " linked": 5506,
  " rooks": 5507,
  " stones": 5508,
  "itors": 5509,
  " 2015": 5510,
  "dict": 5511,
  " reco": 5512,
  " typo": 5513,
  " pend": 5514,
  " cancels": 5515,
  " clock": 5516,
  " 63": 5517,
  "silon": 5518,
  " Node": 5519,
  " yi": 5520,
  " denominators": 5521,
  " chooses": 5522,
  " 55": 5523,
  "rum": 5524,
  "uity": 5525,
  "\n      ": 5526,
  " reverses": 5527,
  " tangential": 5528,
  " alpin": 5529,
  "racted": 5530,
  "epsilon": 5531,
  " acet": 5532,
  "yc": 5533,
  "processing": 5534,
  " 2016": 5535,
  "itation": 5536,
  "vari": 5537,
  "andatory": 5538,
  " pendulum": 5539,
  "esian": 5540,
  " seg": 5541,
  "ausible": 5542,
  "ivot": 5543,
  " clone": 5544,
  "agnet": 5545,
  "BB": 5546,
  " underg": 5547,
  " 144": 5548,
  " solubility": 5549,
  " intersections": 5550,
  "var": 5551,
  "segments": 5552,
  "raw": 5553,
  "going": 5554,
  " diagram": 5555,
  " human": 5556,
  " cla": 5557,
  " cubic": 5558,
  " affected": 5559,
  "modynam": 5560,
  " convention": 5561,
  " bigger": 5562,
  "version": 5563,
  " massive": 5564,
  "]^": 5565,
  " looks": 5566,
  " inherent": 5567,
  "82": 5568,
  "ijk": 5569,
  " John": 5570,
  " glu": 5571,
  " yellow": 5572,
  " lowercase": 5573,
  " home": 5574,
  " employees": 5575,
  " draws": 5576,
  "(\"": 5577,
  " Moon": 5578,
  " ath": 5579,
  "sume": 5580,
  " ignore": 5581,
  " coloring": 5582,
  " resol": 5583,
  " eyes": 5584,
  " subsequences": 5585,
  " sounds": 5586,
  "infinity": 5587,
  "}).": 5588,
  " triangular": 5589,
  "rmodynam": 5590,
  "≈-": 5591,
  " oct": 5592,
  "732": 5593,
  " Substituting": 5594,
  " functional": 5595,
  " separation": 5596,
  "orph": 5597,
  "216": 5598,
  " beam": 5599,
  "ana": 5600,
  " conv": 5601,
  " bottle": 5602,
  "roups": 5603,
  " acids": 5604,
  "Additionally": 5605,
  " role": 5606,
  " propagate": 5607,
  " cubes": 5608,
  "Qu": 5609,
  "''": 5610,
  "ieve": 5611,
  " trace": 5612,
  " plausible": 5613,
  "?)": 5614,
  "pes": 5615,
  " winning": 5616,
  " trigon": 5617,
  "erate": 5618,
  " '(": 5619,
  "aser": 5620,
  " mirrors": 5621,
  "Finally": 5622,
  "isc": 5623,
  " Rever": 5624,
  " intermedi": 5625,
  " cuts": 5626,
  "rational": 5627,
  " prism": 5628,
  " laws": 5629,
  " ptr": 5630,
  " tank": 5631,
  " Num": 5632,
  " copies": 5633,
  "rangle": 5634,
  "]$$$.": 5635,
  "%.": 5636,
  " beginning": 5637,
  "--;": 5638,
  "mong": 5639,
  " Apply": 5640,
  " emission": 5641,
  "target": 5642,
  "79": 5643,
  "while": 5644,
  " mx": 5645,
  " computes": 5646,
  " cli": 5647,
  " north": 5648,
  " lca": 5649,
  "only": 5650,
  "rated": 5651,
  " exclude": 5652,
  " pq": 5653,
  " bor": 5654,
  " polynomials": 5655,
  " Initial": 5656,
  "Point": 5657,
  " provides": 5658,
  " nest": 5659,
  "ordinates": 5660,
  " elastic": 5661,
  "uples": 5662,
  " arccos": 5663,
  " ellipse": 5664,
  "atell": 5665,
  " played": 5666,
  " plasma": 5667,
  " 43": 5668,
  " xor": 5669,
  "μν": 5670,
  " synt": 5671,
  "LC": 5672,
  "osceles": 5673,
  "Otherwise": 5674,
  " fully": 5675,
  " meets": 5676,
  "600": 5677,
  "ripetal": 5678,
  " default": 5679,
  " Solving": 5680,
  " alk": 5681,
  "ayer": 5682,
  " collection": 5683,
  " candies": 5684,
  " ships": 5685,
  " tourn": 5686,
  " sieve": 5687,
  "starting": 5688,
  "Implementing": 5689,
  " crucial": 5690,
  "direction": 5691,
  " xj": 5692,
  " gates": 5693,
  " handles": 5694,
  " quot": 5695,
  " Pr": 5696,
  " protect": 5697,
  " 2008": 5698,
  "hash": 5699,
  " recipro": 5700,
  "lfloor": 5701,
  "rfloor": 5702,
  " Next": 5703,
  " equality": 5704,
  "edily": 5705,
  "ivisors": 5706,
  " mixture": 5707,
  " LHS": 5708,
  "hil": 5709,
  " ly": 5710,
  " carefully": 5711,
  "stack": 5712,
  "eng": 5713,
  "apse": 5714,
  "ils": 5715,
  " coupling": 5716,
  " phenomen": 5717,
  "iral": 5718,
  "'),": 5719,
  " variation": 5720,
  " Iterate": 5721,
  " $$": 5722,
  " Plan": 5723,
  "substr": 5724,
  " filter": 5725,
  " lazy": 5726,
  " flower": 5727,
  " midpoints": 5728,
  "consuming": 5729,
  " thermodynam": 5730,
  " Le": 5731,
  "SO": 5732,
  "rons": 5733,
  "integ": 5734,
  "]$$$,": 5735,
  "power": 5736,
  "ories": 5737,
  " month": 5738,
  " Gaussian": 5739,
  " plate": 5740,
  " 41": 5741,
  " efficiency": 5742,
  " simulation": 5743,
  " Br": 5744,
  " hyperbola": 5745,
  "iring": 5746,
  "}/": 5747,
  " incorrectly": 5748,
  "gence": 5749,
  " maxima": 5750,
  " liters": 5751,
  " '-": 5752,
  "Conclusion": 5753,
  " fewer": 5754,
  " exert": 5755,
  " greedily": 5756,
  "\n                           ": 5757,
  "121": 5758,
  " binding": 5759,
  " opponent": 5760,
  " tournament": 5761,
  "ison": 5762,
  " superposition": 5763,
  " listed": 5764,
  " Equation": 5765,
  " overflow": 5766,
  "land": 5767,
  "void": 5768,
  "ash": 5769,
  " vertically": 5770,
  "2016": 5771,
  " separately": 5772,
  "On": 5773,
  " qubits": 5774,
  " book": 5775,
  "iled": 5776,
  " reached": 5777,
  " leg": 5778,
  " BA": 5779,
  "sort": 5780,
  " repul": 5781,
  " mag": 5782,
  "lete": 5783,
  " simulate": 5784,
  " overlaps": 5785,
  " Additionally": 5786,
  " enzy": 5787,
  " matters": 5788,
  "ribe": 5789,
  "trip": 5790,
  "ished": 5791,
  "minus": 5792,
  " enve": 5793,
  " Are": 5794,
  " scaled": 5795,
  " 105": 5796,
  "]-": 5797,
  "izations": 5798,
  " interpretation": 5799,
  "Group": 5800,
  " isosceles": 5801,
  " implying": 5802,
  " 39": 5803,
  " plant": 5804,
  " members": 5805,
  " Group": 5806,
  "allow": 5807,
  " numerical": 5808,
  "sl": 5809,
  " folding": 5810,
  " losses": 5811,
  "pri": 5812,
  " copper": 5813,
  " metals": 5814,
  "ov": 5815,
  " MAX": 5816,
  " aligned": 5817,
  "merged": 5818,
  "oming": 5819,
  " stamina": 5820,
  " automatically": 5821,
  "though": 5822,
  " Still": 5823,
  " Maxwell": 5824,
  "tual": 5825,
  " numbering": 5826,
  " discus": 5827,
  " neutrons": 5828,
  "sert": 5829,
  " terminal": 5830,
  "oin": 5831,
  "ec": 5832,
  "atin": 5833,
  " accumulate": 5834,
  "({": 5835,
  " slower": 5836,
  "Area": 5837,
  " keys": 5838,
  "lomb": 5839,
  " pulley": 5840,
  "scop": 5841,
  "blue": 5842,
  " connection": 5843,
  " EMF": 5844,
  "either": 5845,
  " boiling": 5846,
  " impost": 5847,
  " construction": 5848,
  "decess": 5849,
  " cutting": 5850,
  "ymmetric": 5851,
  " secondary": 5852,
  " commonly": 5853,
  " hundreds": 5854,
  "changed": 5855,
  " deletion": 5856,
  " ray": 5857,
  " 2012": 5858,
  " nature": 5859,
  "\n\n                         ": 5860,
  " fart": 5861,
  "igid": 5862,
  " backward": 5863,
  "groups": 5864,
  " electroneg": 5865,
  " rings": 5866,
  "stdin": 5867,
  " simultaneous": 5868,
  "Adding": 5869,
  " ok": 5870,
  "108": 5871,
  " lone": 5872,
  "\n\n                      ": 5873,
  " normally": 5874,
  "ON": 5875,
  "column": 5876,
  ")$$$,": 5877,
  "]{": 5878,
  " images": 5879,
  " picture": 5880,
  "ubble": 5881,
  " satisfying": 5882,
  "Fourth": 5883,
  "more": 5884,
  " opening": 5885,
  " weigh": 5886,
  "iving": 5887,
  " mer": 5888,
  "fference": 5889,
  " pushed": 5890,
  "lipping": 5891,
  " deck": 5892,
  ">,": 5893,
  "))^": 5894,
  " belong": 5895,
  " brings": 5896,
  " pivot": 5897,
  " η": 5898,
  " appropri": 5899,
  " CB": 5900,
  "sq": 5901,
  "eded": 5902,
  " translation": 5903,
  "Substituting": 5904,
  "itudes": 5905,
  " focal": 5906,
  "occurrence": 5907,
  " snake": 5908,
  " в": 5909,
  "ector": 5910,
  " epsilon": 5911,
  "force": 5912,
  "conduct": 5913,
  "binary": 5914,
  " bounds": 5915,
  " lack": 5916,
  " frames": 5917,
  "83": 5918,
  " progression": 5919,
  " rays": 5920,
  "egment": 5921,
  "Is": 5922,
  " fore": 5923,
  " conductivity": 5924,
  "py": 5925,
  " truthful": 5926,
  "PO": 5927,
  "bc": 5928,
  " Elect": 5929,
  " enc": 5930,
  "lier": 5931,
  " sine": 5932,
  "Not": 5933,
  " offset": 5934,
  " company": 5935,
  " classic": 5936,
  " Einstein": 5937,
  " walk": 5938,
  " Remove": 5939,
  "10000": 5940,
  " spider": 5941,
  " optimize": 5942,
  " outgoing": 5943,
  " entangled": 5944,
  " floating": 5945,
  " statements": 5946,
  " alternates": 5947,
  "imizing": 5948,
  " satell": 5949,
  "possibly": 5950,
  " Exp": 5951,
  " quotient": 5952,
  " sulfur": 5953,
  " breeders": 5954,
  " __": 5955,
  "'_": 5956,
  "istry": 5957,
  "graph": 5958,
  " infinitely": 5959,
  "face": 5960,
  "ont": 5961,
  "versible": 5962,
  " requirement": 5963,
  " gains": 5964,
  " dominoes": 5965,
  " Two": 5966,
  " measurements": 5967,
  " representing": 5968,
  " Without": 5969,
  " drawn": 5970,
  " deve": 5971,
  "198": 5972,
  " cold": 5973,
  " switch": 5974,
  "omer": 5975,
  "lium": 5976,
  " amin": 5977,
  "agonal": 5978,
  " bonding": 5979,
  " boat": 5980,
  " Again": 5981,
  " stated": 5982,
  "ractive": 5983,
  "anu": 5984,
  " encount": 5985,
  " factorization": 5986,
  " measuring": 5987,
  "icle": 5988,
  " location": 5989,
  " encountered": 5990,
  " versus": 5991,
  " quantity": 5992,
  " evapor": 5993,
  "tom": 5994,
  " termin": 5995,
  " fractional": 5996,
  "kx": 5997,
  " chess": 5998,
  "II": 5999,
  " implemented": 6000,
  "selected": 6001,
  " songs": 6002,
  " relevant": 6003,
  " stays": 6004,
  " definitely": 6005,
  "Node": 6006,
  " chloride": 6007,
  " oxide": 6008,
  "stra": 6009,
  "iny": 6010,
  "Edge": 6011,
  "oxide": 6012,
  " backtracking": 6013,
  " iron": 6014,
  "artesian": 6015,
  " railway": 6016,
  " PB": 6017,
  " hitting": 6018,
  " incoming": 6019,
  "cdots": 6020,
  " UV": 6021,
  " Be": 6022,
  " precomputing": 6023,
  "uminum": 6024,
  "\n        \n       ": 6025,
  " surfaces": 6026,
  " claim": 6027,
  "vest": 6028,
  "ray": 6029,
  " fi": 6030,
  " Its": 6031,
  " observable": 6032,
  "Br": 6033,
  " ∂_": 6034,
  "’(": 6035,
  " arctan": 6036,
  " dead": 6037,
  "$$$;": 6038,
  "aba": 6039,
  " propagation": 6040,
  "lus": 6041,
  " bridges": 6042,
  " intermediate": 6043,
  "onical": 6044,
  "ques": 6045,
  " fly": 6046,
  " replacement": 6047,
  " guard": 6048,
  " dependent": 6049,
  " scales": 6050,
  " Coulomb": 6051,
  "+\\": 6052,
  " shop": 6053,
  " die": 6054,
  " contained": 6055,
  "ograph": 6056,
  "xyl": 6057,
  "ups": 6058,
  " AF": 6059,
  "Bring": 6060,
  " dependence": 6061,
  "]),": 6062,
  " induct": 6063,
  " burn": 6064,
  "noid": 6065,
  "[-": 6066,
  "licity": 6067,
  " ess": 6068,
  " ABCD": 6069,
  "uv": 6070,
  "sigma": 6071,
  " release": 6072,
  "cribed": 6073,
  " writing": 6074,
  "active": 6075,
  " rap": 6076,
  "ology": 6077,
  "answer": 6078,
  " exponentiation": 6079,
  "Loop": 6080,
  "remo": 6081,
  " issues": 6082,
  "uble": 6083,
  " radii": 6084,
  " mutual": 6085,
  " centripetal": 6086,
  " dfs": 6087,
  " BCC": 6088,
  "arest": 6089,
  " Spe": 6090,
  " situation": 6091,
  "ned": 6092,
  "omers": 6093,
  " )^": 6094,
  "225": 6095,
  "mann": 6096,
  " blo": 6097,
  " ∩": 6098,
  "ows": 6099,
  " equally": 6100,
  "2013": 6101,
  " subtracted": 6102,
  " released": 6103,
  "binom": 6104,
  " item": 6105,
  " optimization": 6106,
  " excluding": 6107,
  " unknown": 6108,
  "uclide": 6109,
  "uclidean": 6110,
  "AT": 6111,
  "3333": 6112,
  "ender": 6113,
  "sums": 6114,
  " careful": 6115,
  "fferent": 6116,
  " wording": 6117,
  "agnetism": 6118,
  "});": 6119,
  " mel": 6120,
  "⟩.": 6121,
  " modn": 6122,
  " describes": 6123,
  " formulas": 6124,
  "utation": 6125,
  " success": 6126,
  " 109": 6127,
  " Cho": 6128,
  "har": 6129,
  "Solving": 6130,
  "ky": 6131,
  " Dir": 6132,
  " started": 6133,
  "perm": 6134,
  " percentage": 6135,
  " reading": 6136,
  "}}.": 6137,
  " Polycarp": 6138,
  " notice": 6139,
  " collapse": 6140,
  " growth": 6141,
  " requiring": 6142,
  " outcomes": 6143,
  " sens": 6144,
  " solenoid": 6145,
  " Theore": 6146,
  "Calculate": 6147,
  " induction": 6148,
  " MB": 6149,
  " ski": 6150,
  " estim": 6151,
  " binomial": 6152,
  "att": 6153,
  "}$$$.": 6154,
  " reset": 6155,
  " undefined": 6156,
  "bably": 6157,
  " flows": 6158,
  "mmon": 6159,
  " Car": 6160,
  " egg": 6161,
  " trun": 6162,
  " whereas": 6163,
  " incon": 6164,
  "ffer": 6165,
  "','": 6166,
  "ade": 6167,
  " remainders": 6168,
  " grouping": 6169,
  "})^": 6170,
  " distribute": 6171,
  " engine": 6172,
  " stores": 6173,
  " virtual": 6174,
  " Cartesian": 6175,
  " wra": 6176,
  " om": 6177,
  " expanded": 6178,
  " cataly": 6179,
  "year": 6180,
  "bi": 6181,
  "eff": 6182,
  " RB": 6183,
  "Numerator": 6184,
  " pointing": 6185,
  "AM": 6186,
  " 250": 6187,
  " Newtonian": 6188,
  "??": 6189,
  ")$": 6190,
  "idence": 6191,
  " existence": 6192,
  "$$$$$$": 6193,
  " 56": 6194,
  "iful": 6195,
  " sigma": 6196,
  "cks": 6197,
  "ativity": 6198,
  " \n\n  ": 6199,
  " house": 6200,
  "alog": 6201,
  " plants": 6202,
  " windows": 6203,
  " cyclo": 6204,
  " PD": 6205,
  " cooling": 6206,
  " subject": 6207,
  "etals": 6208,
  " arrangements": 6209,
  " deleting": 6210,
  "express": 6211,
  "vious": 6212,
  " nearest": 6213,
  ")\\": 6214,
  " transmit": 6215,
  " explos": 6216,
  " steady": 6217,
  "1001": 6218,
  " Some": 6219,
  " recogn": 6220,
  " labeled": 6221,
  " stret": 6222,
  " indicating": 6223,
  "ived": 6224,
  " unchanged": 6225,
  "800": 6226,
  "hex": 6227,
  " encl": 6228,
  "\n          ": 6229,
  " fits": 6230,
  " famil": 6231,
  " treat": 6232,
  " parse": 6233,
  " animal": 6234,
  "|)": 6235,
  " device": 6236,
  "inese": 6237,
  " references": 6238,
  " bio": 6239,
  " imaginary": 6240,
  " ].": 6241,
  "orizontal": 6242,
  " bow": 6243,
  " roughly": 6244,
  " beauty": 6245,
  " laser": 6246,
  " restric": 6247,
  " Same": 6248,
  " kil": 6249,
  "both": 6250,
  "SB": 6251,
  " Ste": 6252,
  "acent": 6253,
  " majority": 6254,
  " jour": 6255,
  "169": 6256,
  " describe": 6257,
  " stability": 6258,
  " mL": 6259,
  " Bell": 6260,
  " п": 6261,
  "^(-": 6262,
  "08": 6263,
  " 76": 6264,
  " distinguish": 6265,
  "nel": 6266,
  " automaton": 6267,
  " Chinese": 6268,
  " attacks": 6269,
  "brid": 6270,
  " rigid": 6271,
  " easy": 6272,
  " isolated": 6273,
  " generates": 6274,
  " Planck": 6275,
  " behind": 6276,
  " 121": 6277,
  "\n\n                       ": 6278,
  " arcs": 6279,
  " desk": 6280,
  "main": 6281,
  "warzs": 6282,
  "warzschild": 6283,
  " rapid": 6284,
  ">&": 6285,
  " precip": 6286,
  "reg": 6287,
  "airs": 6288,
  "rick": 6289,
  " envelope": 6290,
  "Note": 6291,
  " considers": 6292,
  " shared": 6293,
  " food": 6294,
  " EF": 6295,
  " targets": 6296,
  " elif": 6297,
  "196": 6298,
  " Any": 6299,
  "900": 6300,
  " rope": 6301,
  " Higgs": 6302,
  "best": 6303,
  " Determine": 6304,
  " great": 6305,
  "levant": 6306,
  " dv": 6307,
  " CE": 6308,
  " wavelengths": 6309,
  "idal": 6310,
  " rh": 6311,
  "2021": 6312,
  " ki": 6313,
  " stone": 6314,
  " Mg": 6315,
  "uni": 6316,
  " orders": 6317,
  " sumX": 6318,
  " Euclidean": 6319,
  " condens": 6320,
  "hibit": 6321,
  " performing": 6322,
  " ordering": 6323,
  " signal": 6324,
  "queue": 6325,
  " eight": 6326,
  " argument": 6327,
  "      ": 6328,
  " mm": 6329,
  " Cont": 6330,
  "swap": 6331,
  "Calculating": 6332,
  "contribution": 6333,
  "rd": 6334,
  "mal": 6335,
  "998": 6336,
  "['": 6337,
  ")):": 6338,
  " labels": 6339,
  "covered": 6340,
  " trigonometric": 6341,
  " void": 6342,
  " Options": 6343,
  " techni": 6344,
  " 52": 6345,
  "250": 6346,
  " 123": 6347,
  "gar": 6348,
  " 38": 6349,
  "onstruct": 6350,
  "rif": 6351,
  " gir": 6352,
  " practical": 6353,
  "ulate": 6354,
  "rav": 6355,
  "irected": 6356,
  " competition": 6357,
  " indicate": 6358,
  "key": 6359,
  " van": 6360,
  " subtraction": 6361,
  "1010": 6362,
  " cal": 6363,
  " '?'": 6364,
  " worse": 6365,
  " quarks": 6366,
  "Tr": 6367,
  "those": 6368,
  "qquad": 6369,
  "resize": 6370,
  " thin": 6371,
  "circle": 6372,
  " eV": 6373,
  " street": 6374,
  " horizontally": 6375,
  " theoretical": 6376,
  " purpose": 6377,
  " Theorem": 6378,
  " extension": 6379,
  " Among": 6380,
  "och": 6381,
  " server": 6382,
  "ottom": 6383,
  " uniquely": 6384,
  " Ad": 6385,
  " ded": 6386,
  " arrives": 6387,
  " picks": 6388,
  " specifies": 6389,
  "overrightarrow": 6390,
  " shad": 6391,
  " lb": 6392,
  " semicircles": 6393,
  " talking": 6394,
  "pex": 6395,
  "reach": 6396,
  " commutator": 6397,
  " req": 6398,
  " na": 6399,
  " spaced": 6400,
  " optimally": 6401,
  "236": 6402,
  "square": 6403,
  " salt": 6404,
  "07": 6405,
  "tered": 6406,
  " predecess": 6407,
  " Inter": 6408,
  "reater": 6409,
  "]++;": 6410,
  "fa": 6411,
  "acy": 6412,
  "eous": 6413,
  "Pa": 6414,
  " diamet": 6415,
  " subsegments": 6416,
  "}:": 6417,
  " clouds": 6418,
  " mandatory": 6419,
  " ammon": 6420,
  " 84": 6421,
  " ∪": 6422,
  " Fou": 6423,
  "linear": 6424,
  " performed": 6425,
  " \\(-": 6426,
  " cast": 6427,
  "There": 6428,
  "pending": 6429,
  " massless": 6430,
  " Ke": 6431,
  " togg": 6432,
  "lent": 6433,
  " LL": 6434,
  " En": 6435,
  " spaceship": 6436,
  " surrounding": 6437,
  " undirected": 6438,
  "mn": 6439,
  " crystal": 6440,
  "lex": 6441,
  " convolution": 6442,
  " symbol": 6443,
  "()),": 6444,
  "0000000": 6445,
  " penal": 6446,
  "opt": 6447,
  " tail": 6448,
  " dir": 6449,
  " Solution": 6450,
  " expecting": 6451,
  " State": 6452,
  " testing": 6453,
  " maximizes": 6454,
  " evolution": 6455,
  " phases": 6456,
  "ropic": 6457,
  " profit": 6458,
  " clim": 6459,
  " Second": 6460,
  "heres": 6461,
  "body": 6462,
  " magic": 6463,
  " с": 6464,
  " trial": 6465,
  " SN": 6466,
  "result": 6467,
  " ABD": 6468,
  " EC": 6469,
  "versed": 6470,
  " decision": 6471,
  "olume": 6472,
  " Schwarzschild": 6473,
  "BW": 6474,
  " reflections": 6475,
  " spins": 6476,
  " precision": 6477,
  " pKa": 6478,
  "(|": 6479,
  " 54": 6480,
  " dots": 6481,
  " everything": 6482,
  " additive": 6483,
  " apex": 6484,
  " produced": 6485,
  " theories": 6486,
  "oney": 6487,
  "2014": 6488,
  " arranging": 6489,
  " consum": 6490,
  "NOT": 6491,
  "CC": 6492,
  "enter": 6493,
  " turned": 6494,
  " east": 6495,
  " plates": 6496,
  " characteristic": 6497,
  " lift": 6498,
  " date": 6499,
  " breeder": 6500,
  "halpy": 6501,
  " traveling": 6502,
  " sheets": 6503,
  " surv": 6504,
  "hig": 6505,
  " proceeds": 6506,
  "dr": 6507,
  " Original": 6508,
  "ouses": 6509,
  " techn": 6510,
  "hydro": 6511,
  "то": 6512,
  "triangle": 6513,
  " branches": 6514,
  "mass": 6515,
  "alence": 6516,
  " neutrinos": 6517,
  ")*(-": 6518,
  " foot": 6519,
  "2022": 6520,
  " diffraction": 6521,
  "hips": 6522,
  " radical": 6523,
  " Where": 6524,
  "pmod": 6525,
  " sections": 6526,
  " blood": 6527,
  " 95": 6528,
  " plug": 6529,
  " alloc": 6530,
  "space": 6531,
  " bounded": 6532,
  " mach": 6533,
  "itate": 6534,
  " irrelevant": 6535,
  " canonical": 6536,
  "zz": 6537,
  " analog": 6538,
  " missed": 6539,
  " Herm": 6540,
  "NH": 6541,
  " Area": 6542,
  " tele": 6543,
  "exponent": 6544,
  "nx": 6545,
  " inconsist": 6546,
  "place": 6547,
  "ppler": 6548,
  " CM": 6549,
  " simpler": 6550,
  "ising": 6551,
  " drag": 6552,
  "atics": 6553,
  " cour": 6554,
  "asure": 6555,
  " 65": 6556,
  "quaring": 6557,
  " ν": 6558,
  " marks": 6559,
  " waiting": 6560,
  " coinc": 6561,
  "ails": 6562,
  " billion": 6563,
  " Me": 6564,
  "uro": 6565,
  "forbidden": 6566,
  "ids": 6567,
  " king": 6568,
  " divisibility": 6569,
  " ability": 6570,
  " independently": 6571,
  " bacter": 6572,
  " love": 6573,
  "roach": 6574,
  " photo": 6575,
  "variant": 6576,
  " kx": 6577,
  " duration": 6578,
  " confirms": 6579,
  "02": 6580,
  " '('": 6581,
  " repeat": 6582,
  "eman": 6583,
  " page": 6584,
  " insect": 6585,
  "1991": 6586,
  "Substitute": 6587,
  " \\)**:": 6588,
  " ten": 6589,
  " hydroxide": 6590,
  "ney": 6591,
  " MeV": 6592,
  " useful": 6593,
  " distributed": 6594,
  " achievable": 6595,
  " conversion": 6596,
  "240": 6597,
  " design": 6598,
  "fic": 6599,
  " beautiful": 6600,
  " farthest": 6601,
  "cher": 6602,
  " parametric": 6603,
  "...,": 6604,
  "logram": 6605,
  "rifug": 6606,
  "Expand": 6607,
  " essential": 6608,
  " sil": 6609,
  "ality": 6610,
  " shifting": 6611,
  "()).": 6612,
  "can": 6613,
  "greater": 6614,
  " prefixes": 6615,
  "sequ": 6616,
  " errors": 6617,
  "^{(": 6618,
  " cosmo": 6619,
  "blocked": 6620,
  " redund": 6621,
  "zed": 6622,
  " nuclei": 6623,
  " clusters": 6624,
  " liter": 6625,
  "erv": 6626,
  " LIS": 6627,
  " introduces": 6628,
  " rounded": 6629,
  "andard": 6630,
  " denot": 6631,
  " tidal": 6632,
  "uter": 6633,
  "shaped": 6634,
  " unrelated": 6635,
  " label": 6636,
  " Far": 6637,
  "acle": 6638,
  " incline": 6639,
  " worker": 6640,
  "iy": 6641,
  "oreover": 6642,
  " Count": 6643,
  " Query": 6644,
  " filling": 6645,
  " freed": 6646,
  " eat": 6647,
  "tas": 6648,
  "ki": 6649,
  " Consider": 6650,
  "acro": 6651,
  "weight": 6652,
  " carbonyl": 6653,
  " memoization": 6654,
  " 240": 6655,
  "None": 6656,
  " carbocation": 6657,
  " Initially": 6658,
  " Analysis": 6659,
  " amino": 6660,
  "aligned": 6661,
  " RBS": 6662,
  " suitable": 6663,
  " generation": 6664,
  " PA": 6665,
  " inscribed": 6666,
  " variance": 6667,
  "That": 6668,
  "segment": 6669,
  " '(',": 6670,
  " Ca": 6671,
  "lopes": 6672,
  "now": 6673,
  "sinθ": 6674,
  " wires": 6675,
  " Doppler": 6676,
  "locity": 6677,
  " substance": 6678,
  "<<": 6679,
  " Why": 6680,
  "seud": 6681,
  " conclu": 6682,
  " concentrations": 6683,
  " dominant": 6684,
  " prom": 6685,
  "cose": 6686,
  " obst": 6687,
  ")]/": 6688,
  " motor": 6689,
  ")_": 6690,
  " Need": 6691,
  "antum": 6692,
  "ravity": 6693,
  "lines": 6694,
  " dri": 6695,
  " 66": 6696,
  " luck": 6697,
  "rifugal": 6698,
  " '.',": 6699,
  "asha": 6700,
  " border": 6701,
  " inherently": 6702,
  " seeing": 6703,
  "(√": 6704,
  " parallelogram": 6705,
  " treated": 6706,
  "ung": 6707,
  " optimizations": 6708,
  " maintained": 6709,
  " Calculation": 6710,
  " odds": 6711,
  "Key": 6712,
  " closing": 6713,
  " carried": 6714,
  " pip": 6715,
  " cows": 6716,
  " comparison": 6717,
  " extremely": 6718,
  " vide": 6719,
  " enthalpy": 6720,
  " tuple": 6721,
  " aluminum": 6722,
  " bitset": 6723,
  " incomp": 6724,
  " irrational": 6725,
  " sale": 6726,
  " dissoci": 6727,
  "cifically": 6728,
  "ogeneous": 6729,
  "SS": 6730,
  " production": 6731,
  " Product": 6732,
  " trivial": 6733,
  " tuples": 6734,
  " assumed": 6735,
  " Se": 6736,
  " unable": 6737,
  " Dirac": 6738,
  " buffer": 6739,
  " band": 6740,
  " MN": 6741,
  " assigning": 6742,
  " stri": 6743,
  " kJ": 6744,
  "gens": 6745,
  " Γ": 6746,
  "osing": 6747,
  "eric": 6748,
  "tically": 6749,
  " simplicity": 6750,
  " plastic": 6751,
  " redist": 6752,
  "ource": 6753,
  "5000": 6754,
  " frog": 6755,
  " adjusting": 6756,
  " electrical": 6757,
  " *=": 6758,
  "oving": 6759,
  "2020": 6760,
  "'=": 6761,
  " experience": 6762,
  " Ro": 6763,
  "ontaneous": 6764,
  "berg": 6765,
  "anglement": 6766,
  " \n\n     ": 6767,
  " repeating": 6768,
  "itian": 6769,
  " genetic": 6770,
  "onses": 6771,
  "clist": 6772,
  " viewed": 6773,
  " strongly": 6774,
  " freedom": 6775,
  "import": 6776,
  " saying": 6777,
  "ading": 6778,
  "$$$),": 6779,
  " anten": 6780,
  " plot": 6781,
  " pentagon": 6782,
  " minimizes": 6783,
  " instantaneous": 6784,
  " knights": 6785,
  " 2017": 6786,
  " previously": 6787,
  "360": 6788,
  " catalyst": 6789,
  " fusion": 6790,
  " mana": 6791,
  " MAD": 6792,
  "lined": 6793,
  " pushing": 6794,
  ")/√": 6795,
  "}$$$,": 6796,
  " destroyed": 6797,
  " weaker": 6798,
  " arrow": 6799,
  "ymp": 6800,
  " Substitute": 6801,
  " flawed": 6802,
  " traverse": 6803,
  " significantly": 6804,
  " Hy": 6805,
  " 96": 6806,
  " bur": 6807,
  " du": 6808,
  "eps": 6809,
  "3²": 6810,
  "oplus": 6811,
  " responses": 6812,
  "rank": 6813,
  "consec": 6814,
  " shops": 6815,
  "Example": 6816,
  " redundant": 6817,
  " macro": 6818,
  " incident": 6819,
  " drawing": 6820,
  " pole": 6821,
  "jective": 6822,
  "needed": 6823,
  " rocket": 6824,
  "nm": 6825,
  "App": 6826,
  "ulf": 6827,
  "half": 6828,
  " derivation": 6829,
  "ple": 6830,
  " Com": 6831,
  "unique": 6832,
  " thous": 6833,
  "nihil": 6834,
  " tempor": 6835,
  " primarily": 6836,
  "anes": 6837,
  " redshift": 6838,
  " buoy": 6839,
  " visit": 6840,
  " divergence": 6841,
  "rins": 6842,
  " neutrino": 6843,
  " ℓ": 6844,
  " pointer": 6845,
  " instruction": 6846,
  " 98": 6847,
  "103": 6848,
  "trivial": 6849,
  " catch": 6850,
  "00000000": 6851,
  " damp": 6852,
  " Gauss": 6853,
  ")^{-": 6854,
  " pert": 6855,
  " explains": 6856,
  "assium": 6857,
  "DP": 6858,
  "inv": 6859,
  "lished": 6860,
  " devi": 6861,
  " introduce": 6862,
  "ination": 6863,
  " BM": 6864,
  " 2013": 6865,
  " Fourier": 6866,
  "ception": 6867,
  " discrete": 6868,
  " recursion": 6869,
  "ny": 6870,
  " Remaining": 6871,
  "mathbb": 6872,
  " chance": 6873,
  "otic": 6874,
  "smaller": 6875,
  " iterative": 6876,
  "artic": 6877,
  " drops": 6878,
  " forest": 6879,
  " cook": 6880,
  " reflects": 6881,
  " (\\(\\": 6882,
  " occupied": 6883,
  "}]": 6884,
  " valence": 6885,
  "between": 6886,
  " )/(": 6887,
  "135": 6888,
  "texttt": 6889,
  " PQ": 6890,
  " projectile": 6891,
  " nth": 6892,
  "rid": 6893,
  "rinsic": 6894,
  "sem": 6895,
  " CC": 6896,
  " 51": 6897,
  "dis": 6898,
  " 47": 6899,
  "0001": 6900,
  " attempt": 6901,
  " eventually": 6902,
  "lets": 6903,
  " phenomenon": 6904,
  " figures": 6905,
  "code": 6906,
  " eliminated": 6907,
  " semi": 6908,
  "win": 6909,
  " miscalculation": 6910,
  " ballo": 6911,
  " descend": 6912,
  " standing": 6913,
  " Paul": 6914,
  " invariance": 6915,
  " genes": 6916,
  " teac": 6917,
  " lucky": 6918,
  " knows": 6919,
  " anywhere": 6920,
  "но": 6921,
  " simplifying": 6922,
  "pect": 6923,
  " mind": 6924,
  " said": 6925,
  " detected": 6926,
  " classi": 6927,
  " outward": 6928,
  " 2009": 6929,
  " Lie": 6930,
  " plank": 6931,
  " Trans": 6932,
  " bosons": 6933,
  " crosses": 6934,
  "010": 6935,
  " unf": 6936,
  " dogs": 6937,
  "FF": 6938,
  " little": 6939,
  " transverse": 6940,
  " PC": 6941,
  "ols": 6942,
  " south": 6943,
  " tick": 6944,
  " satellite": 6945,
  " messages": 6946,
  "}$,": 6947,
  "lie": 6948,
  " symmetries": 6949,
  " CA": 6950,
  " spectrum": 6951,
  " tun": 6952,
  " spheres": 6953,
  " erase": 6954,
  " '+'": 6955,
  " warrior": 6956,
  " mistak": 6957,
  " constr": 6958,
  "oo": 6959,
  "BD": 6960,
  "}{(": 6961,
  " chromos": 6962,
  " indexes": 6963,
  " fermion": 6964,
  "abla": 6965,
  " predict": 6966,
  " AO": 6967,
  "ometer": 6968,
  " tables": 6969,
  " liars": 6970,
  "Again": 6971,
  "candidates": 6972,
  " sticks": 6973,
  " combinatorial": 6974,
  " study": 6975,
  "}|": 6976,
  " bitwise": 6977,
  " Approach": 6978,
  "augh": 6979,
  ")=(": 6980,
  " Ferm": 6981,
  " au": 6982,
  " universal": 6983,
  "nabla": 6984,
  " и": 6985,
  " 900": 6986,
  "03": 6987,
  "omorph": 6988,
  " slipping": 6989,
  " Person": 6990,
  " prefer": 6991,
  " reciprocal": 6992,
  " Cos": 6993,
  "cycles": 6994,
  "rowth": 6995,
  " hero": 6996,
  "elastic": 6997,
  "double": 6998,
  " asked": 6999,
  " modes": 7000,
  " 1991": 7001,
  " 512": 7002,
  " originally": 7003,
  "09": 7004,
  "700": 7005,
  "olean": 7006,
  "allowed": 7007,
  " annihil": 7008,
  " bulk": 7009,
  " plu": 7010,
  ")}.": 7011,
  "update": 7012,
  " congru": 7013,
  "integer": 7014,
  "rust": 7015,
  " reconstruct": 7016,
  " sheet": 7017,
  "ра": 7018,
  " usual": 7019,
  " monitor": 7020,
  " reflecting": 7021,
  "enced": 7022,
  " 112": 7023,
  " nested": 7024,
  " merges": 7025,
  " factorials": 7026,
  " broad": 7027,
  " padded": 7028,
  " athlete": 7029,
  " Code": 7030,
  "}),": 7031,
  " 000": 7032,
  ".),": 7033,
  " normalized": 7034,
  " enum": 7035,
  "onac": 7036,
  "onacci": 7037,
  "combin": 7038,
  "operator": 7039,
  " emits": 7040,
  "tons": 7041,
  " impul": 7042,
  "pause": 7043,
  " composed": 7044,
  " 210": 7045,
  "contrib": 7046,
  "eds": 7047,
  " 2005": 7048,
  " application": 7049,
  "Expanding": 7050,
  " activity": 7051,
  " appropriate": 7052,
  " updating": 7053,
  " duplicate": 7054,
  " pseud": 7055,
  " soluble": 7056,
  " boson": 7057,
  "lugging": 7058,
  " stage": 7059,
  "agger": 7060,
  " spell": 7061,
  " talk": 7062,
  " composition": 7063,
  " Hmmm": 7064,
  " grids": 7065,
  " commute": 7066,
  " NaOH": 7067,
  " abc": 7068,
  "triplet": 7069,
  " somehow": 7070,
  "'d": 7071,
  "reverse": 7072,
  " reaching": 7073,
  " dense": 7074,
  " helper": 7075,
  " exceeding": 7076,
  "fixed": 7077,
  "data": 7078,
  " 91": 7079,
  " unitary": 7080,
  " (\"": 7081,
  ">.": 7082,
  " greatest": 7083,
  "err": 7084,
  " Choose": 7085,
  "angu": 7086,
  " refractive": 7087,
  " heard": 7088,
  "160": 7089,
  " GR": 7090,
  " deltas": 7091,
  "bert": 7092,
  " hist": 7093,
  " solvent": 7094,
  " obvious": 7095,
  "():": 7096,
  " finds": 7097,
  "lement": 7098,
  " helium": 7099,
  " yz": 7100,
  " interior": 7101,
  " intersecting": 7102,
  " repulsion": 7103,
  " melting": 7104,
  " shouldn": 7105,
  "lca": 7106,
  " KM": 7107,
  " modifying": 7108,
  "]+": 7109,
  " adjoint": 7110,
  "ymmetry": 7111,
  " winners": 7112,
  " 58": 7113,
  "122": 7114,
  " houses": 7115,
  " grass": 7116,
  "2002": 7117,
  " adv": 7118,
  " mes": 7119,
  " 53": 7120,
  "gap": 7121,
  "()))": 7122,
  " aj": 7123,
  "uctu": 7124,
  " curved": 7125,
  " departure": 7126,
  " failure": 7127,
  "These": 7128,
  " address": 7129,
  "odes": 7130,
  "oub": 7131,
  "ishes": 7132,
  " centrifugal": 7133,
  " compart": 7134,
  " modular": 7135,
  " differenti": 7136,
  " Simplify": 7137,
  " gave": 7138,
  " thickness": 7139,
  " chessboard": 7140,
  "ressible": 7141,
  "618": 7142,
  " grouped": 7143,
  " 128": 7144,
  " Valid": 7145,
  "operatorname": 7146,
  " primitive": 7147,
  " penc": 7148,
  "som": 7149,
  " ')',": 7150,
  "aaaa": 7151,
  " keeps": 7152,
  "ONG": 7153,
  "readline": 7154,
  "scopic": 7155,
  " \\)),": 7156,
  " rain": 7157,
  " bask": 7158,
  " tiny": 7159,
  " touch": 7160,
  " alter": 7161,
  " insertions": 7162,
  " Fibonacci": 7163,
  " BF": 7164,
  "roton": 7165,
  " jumps": 7166,
  " robots": 7167,
  "lication": 7168,
  " reacts": 7169,
  "erase": 7170,
  "ABC": 7171,
  " tests": 7172,
  "life": 7173,
  " summoned": 7174,
  " tracked": 7175,
  " seven": 7176,
  " ignored": 7177,
  "diagonal": 7178,
  "turn": 7179,
  " upon": 7180,
  "ifold": 7181,
  " hands": 7182,
  "ijkstra": 7183,
  " plat": 7184,
  "ards": 7185,
  " potentially": 7186,
  " info": 7187,
  " por": 7188,
  " cup": 7189,
  " Other": 7190,
  "ategory": 7191,
  " relationships": 7192,
  " reversible": 7193,
  "sur": 7194,
  " bj": 7195,
  "aday": 7196,
  " OC": 7197,
  "arp": 7198,
  " integration": 7199,
  " spot": 7200,
  "vertical": 7201,
  " electricity": 7202,
  "moving": 7203,
  " Reverse": 7204,
  " RNA": 7205,
  " spontaneous": 7206,
  " accelerate": 7207,
  "([": 7208,
  "2023": 7209,
  " grows": 7210,
  " cream": 7211,
  "Number": 7212,
  " perfectly": 7213,
  " hydrolysis": 7214,
  " measures": 7215,
  " bat": 7216,
  "feit": 7217,
  " fluctu": 7218,
  " chemistry": 7219,
  ")/(-": 7220,
  " ionization": 7221,
  " curl": 7222,
  "Pre": 7223,
  " dispers": 7224,
  " 85": 7225,
  "707": 7226,
  " ionic": 7227,
  "relation": 7228,
  " platform": 7229,
  "rored": 7230,
  "=√": 7231,
  " 135": 7232,
  " sixth": 7233,
  "enger": 7234,
  "width": 7235,
  "growth": 7236,
  " fru": 7237,
  "components": 7238,
  " iterations": 7239,
  "romagnetic": 7240,
  " approx": 7241,
  " derive": 7242,
  "constant": 7243,
  "Rearr": 7244,
  " 10000": 7245,
  " penalty": 7246,
  "iers": 7247,
  " ½": 7248,
  "itance": 7249,
  " counterfeit": 7250,
  " concatenation": 7251,
  " moments": 7252,
  " rounding": 7253,
  " extend": 7254,
  " accounts": 7255,
  " plugging": 7256,
  "otential": 7257,
  " mirrored": 7258,
  " running": 7259,
  " medians": 7260,
  "xx": 7261,
  " dem": 7262,
  "something": 7263,
  " enzyme": 7264,
  " mit": 7265,
  " alpinists": 7266,
  " difficulty": 7267,
  "imeters": 7268,
  " optical": 7269,
  "cons": 7270,
  " tube": 7271,
  "ills": 7272,
  "ought": 7273,
  "Where": 7274,
  "they": 7275,
  "hedu": 7276,
  "Simplifying": 7277,
  " travels": 7278,
  " meter": 7279,
  " antis": 7280,
  "Alice": 7281,
  " ket": 7282,
  " ✔": 7283,
  " ✔️": 7284,
  "join": 7285,
  " Res": 7286,
  " Sk": 7287,
  " links": 7288,
  "06": 7289,
  "poses": 7290,
  " Hermitian": 7291,
  " posit": 7292,
  "828": 7293,
  " Starting": 7294,
  " 2004": 7295,
  " CNOT": 7296,
  "allel": 7297,
  " negatives": 7298,
  " concepts": 7299,
  " restrictions": 7300,
  " slit": 7301,
  "ued": 7302,
  " skipped": 7303,
  "planation": 7304,
  " transforms": 7305,
  "ised": 7306,
  "}}\\).": 7307,
  "mg": 7308,
  " falls": 7309,
  "''(": 7310,
  " coming": 7311,
  " quarter": 7312,
  " undergo": 7313,
  " bacteria": 7314,
  " cheap": 7315,
  " deproton": 7316,
  " Points": 7317,
  "third": 7318,
  " studies": 7319,
  " tells": 7320,
  " stere": 7321,
  " develop": 7322,
  "=[": 7323,
  " moon": 7324,
  " trunc": 7325,
  " inverted": 7326,
  " salary": 7327,
  "arse": 7328,
  " collide": 7329,
  "hbar": 7330,
  " technically": 7331,
  " doub": 7332,
  "adjacent": 7333,
  "ression": 7334,
  " delay": 7335,
  " hyd": 7336,
  " workers": 7337,
  " rating": 7338,
  " Int": 7339,
  "lish": 7340,
  " Div": 7341,
  " thrust": 7342,
  "rating": 7343,
  " preserved": 7344,
  " derange": 7345,
  " animals": 7346,
  "ynt": 7347,
  " teacher": 7348,
  " adap": 7349,
  "polar": 7350,
  " coprimes": 7351,
  " convey": 7352,
  " alken": 7353,
  "One": 7354,
  " nucleot": 7355,
  " electrostatic": 7356,
  " fermions": 7357,
  " entanglement": 7358,
  " radio": 7359,
  "leaf": 7360,
  "leaves": 7361,
  " journey": 7362,
  " Amp": 7363,
  "agons": 7364,
  "istics": 7365,
  "|\\": 7366,
  "Ne": 7367,
  " took": 7368,
  "ses": 7369,
  " Bern": 7370,
  " Segment": 7371,
  " reads": 7372,
  "celeration": 7373,
  " Hubble": 7374,
  "colors": 7375,
  "bottom": 7376,
  " mutation": 7377,
  " Bo": 7378,
  " reversal": 7379,
  "othermal": 7380,
  " Dijkstra": 7381,
  " Cu": 7382,
  " acetic": 7383,
  "1990": 7384,
  " complicate": 7385,
  ",\\": 7386,
  " details": 7387,
  " clearly": 7388,
  " onwards": 7389,
  " Possible": 7390,
  " Hz": 7391,
  " feet": 7392,
  " stations": 7393,
  " Anna": 7394,
  " Latin": 7395,
  "\"—": 7396,
  " formalize": 7397,
  "ging": 7398,
  " arrive": 7399,
  " 1024": 7400,
  " lig": 7401,
  " linearly": 7402,
  " |\\": 7403,
  "ware": 7404,
  "=>": 7405,
  " photos": 7406,
  "yle": 7407,
  "por": 7408,
  "chy": 7409,
  " glucose": 7410,
  "tz": 7411,
  " 216": 7412,
  " recept": 7413,
  "paired": 7414,
  " preprocessing": 7415,
  " dynamics": 7416,
  "inction": 7417,
  " fra": 7418,
  "illar": 7419,
  "2017": 7420,
  " playing": 7421,
  " potassium": 7422,
  " agent": 7423,
  "'[": 7424,
  "5²": 7425,
  "slant": 7426,
  " ,": 7427,
  " Sh": 7428,
  " passenger": 7429,
  " pump": 7430,
  " constrained": 7431,
  "ience": 7432,
  " Left": 7433,
  " accurately": 7434,
  " constructing": 7435,
  "RNA": 7436,
  "mathcal": 7437,
  " boy": 7438,
  " pause": 7439,
  "ailed": 7440,
  "]*(": 7441,
  " signature": 7442,
  "Ver": 7443,
  "ounter": 7444,
  " coil": 7445,
  "可能": 7446,
  " proteins": 7447,
  " scho": 7448,
  " exams": 7449,
  " eigenstates": 7450,
  "Oh": 7451,
  " lept": 7452,
  " resolve": 7453,
  " generator": 7454,
  " displaced": 7455,
  " age": 7456,
  "dir": 7457,
  ")[": 7458,
  " Number": 7459,
  "forces": 7460,
  " Mat": 7461,
  "field": 7462,
  " volum": 7463,
  " 600": 7464,
  " Φ": 7465,
  "Maybe": 7466,
  " -->": 7467,
  "omes": 7468,
  " representations": 7469,
  " )/": 7470,
  " extract": 7471,
  " heavier": 7472,
  " boun": 7473,
  " BB": 7474,
  " machine": 7475,
  "sip": 7476,
  "Other": 7477,
  "straight": 7478,
  "quency": 7479,
  " substituted": 7480,
  " crew": 7481,
  " flame": 7482,
  "ecution": 7483,
  " yeah": 7484,
  "nder": 7485,
  "}}{\\": 7486,
  "⟩,": 7487,
  " langu": 7488,
  " comparator": 7489,
  "gaps": 7490,
  "cyc": 7491,
  " dens": 7492,
  " almost": 7493,
  " dθ": 7494,
  " oranges": 7495,
  " schedu": 7496,
  " amounts": 7497,
  " insul": 7498,
  " estab": 7499,
  "Coordinates": 7500,
  "sectional": 7501,
  " intrinsic": 7502,
  "xylic": 7503,
  " host": 7504,
  "\":": 7505,
  "Ar": 7506,
  " uniformly": 7507,
  "aker": 7508,
  " Pauli": 7509,
  " tends": 7510,
  "brane": 7511,
  " Invalid": 7512,
  " explosion": 7513,
  "481": 7514,
  "sx": 7515,
  " mus": 7516,
  " shaded": 7517,
  " abst": 7518,
  " identities": 7519,
  " BP": 7520,
  " crossing": 7521,
  " fem": 7522,
  " SH": 7523,
  "GB": 7524,
  " Ai": 7525,
  " consideration": 7526,
  " performance": 7527,
  " spinning": 7528,
  " sunlight": 7529,
  "contin": 7530,
  " lj": 7531,
  " orthocenter": 7532,
  " mapping": 7533,
  "Initially": 7534,
  "olves": 7535,
  " Grundy": 7536,
  "375": 7537,
  " ur": 7538,
  " diamonds": 7539,
  " During": 7540,
  " н": 7541,
  " currently": 7542,
  " Distance": 7543,
  " simultaneously": 7544,
  "cor": 7545,
  " XY": 7546,
  " Preprocess": 7547,
  " factorize": 7548,
  " {}": 7549,
  " summands": 7550,
  " ran": 7551,
  " traject": 7552,
  " Specifically": 7553,
  "LD": 7554,
  " halves": 7555,
  " money": 7556,
  " principles": 7557,
  "electron": 7558,
  "]].": 7559,
  " polarized": 7560,
  " 108": 7561,
  " Swap": 7562,
  " cosmological": 7563,
  "1024": 7564,
  " '<'": 7565,
  " overcom": 7566,
  " contra": 7567,
  " purposes": 7568,
  "alent": 7569,
  "According": 7570,
  " nucleop": 7571,
  " creation": 7572,
  " compact": 7573,
  " Xia": 7574,
  " beats": 7575,
  " balloon": 7576,
  " GeV": 7577,
  "present": 7578,
  "seg": 7579,
  " Probably": 7580,
  " Yeah": 7581,
  "Po": 7582,
  " impulse": 7583,
  "reachable": 7584,
  " axial": 7585,
  "CS": 7586,
  " recheck": 7587,
  " analyzing": 7588,
  " oscillations": 7589,
  " inradius": 7590,
  " sold": 7591,
  " 2019": 7592,
  "ategor": 7593,
  "');": 7594,
  "vin": 7595,
  " bright": 7596,
  " sib": 7597,
  " hu": 7598,
  " uppercase": 7599,
  " phosphate": 7600,
  " quartic": 7601,
  "192": 7602,
  " rj": 7603,
  "inals": 7604,
  " contradictory": 7605,
  "mplete": 7606,
  " Sy": 7607,
  "carry": 7608,
  " screen": 7609,
  " 160": 7610,
  " Ac": 7611,
  " climb": 7612,
  "rically": 7613,
  " rearranged": 7614,
  " \\{": 7615,
  " thereby": 7616,
  "While": 7617,
  " 77": 7618,
  " bulb": 7619,
  " Ag": 7620,
  "textbf": 7621,
  " clique": 7622,
  " eigenvalue": 7623,
  " 67": 7624,
  "109": 7625,
  "ike": 7626,
  "ainder": 7627,
  "\n\n                     ": 7628,
  " rock": 7629,
  " incrementally": 7630,
  " aspect": 7631,
  " intercept": 7632,
  " aromatic": 7633,
  " slopes": 7634,
  " PE": 7635,
  "hole": 7636,
  " tiling": 7637,
  " Final": 7638,
  "Consider": 7639,
  " Calculate": 7640,
  " content": 7641,
  "112": 7642,
  " bird": 7643,
  "orage": 7644,
  " immediate": 7645,
  " shapes": 7646,
  "tau": 7647,
  " enters": 7648,
  " accumulated": 7649,
  " symbols": 7650,
  "ighter": 7651,
  " tangents": 7652,
  "ef": 7653,
  " conclude": 7654,
  "real": 7655,
  "104": 7656,
  " thousands": 7657,
  " Vi": 7658,
  " pressures": 7659,
  " completed": 7660,
  " actors": 7661,
  " trad": 7662,
  "Distance": 7663,
  "height": 7664,
  " ske": 7665,
  "rit": 7666,
  " trio": 7667,
  " ED": 7668,
  " sand": 7669,
  " rewrite": 7670,
  " discussed": 7671,
  " Compare": 7672,
  " summand": 7673,
  "Assume": 7674,
  "area": 7675,
  " perturb": 7676,
  " easily": 7677,
  "intervals": 7678,
  "mark": 7679,
  " blocking": 7680,
  " enclosed": 7681,
  "ED": 7682,
  "rew": 7683,
  "iver": 7684,
  "dience": 7685,
  " Assuming": 7686,
  " neighboring": 7687,
  " definitions": 7688,
  " substances": 7689,
  "391": 7690,
  " Cosines": 7691,
  " transport": 7692,
  " reactive": 7693,
  " +√": 7694,
  " folded": 7695,
  " superconduct": 7696,
  "}$.": 7697,
  "hr": 7698,
  " hydroxyl": 7699,
  "₂²": 7700,
  " AI": 7701,
  "所以": 7702,
  "ably": 7703,
  "horizontal": 7704,
  "reversed": 7705,
  " Insert": 7706,
  " grand": 7707,
  " Grign": 7708,
  " iii": 7709,
  " categor": 7710,
  " transferred": 7711,
  " entering": 7712,
  " Faraday": 7713,
  "INF": 7714,
  "athode": 7715,
  " beat": 7716,
  " discount": 7717,
  " Jo": 7718,
  " portion": 7719,
  " damping": 7720,
  "inic": 7721,
  " noise": 7722,
  " muse": 7723,
  " museum": 7724,
  " raised": 7725,
  " cans": 7726,
  " vap": 7727,
  " GCDs": 7728,
  " к": 7729,
  " octa": 7730,
  " spots": 7731,
  " defaultdict": 7732,
  "trad": 7733,
  " claims": 7734,
  " doubles": 7735,
  " experimental": 7736,
  " Push": 7737,
  "uff": 7738,
  "carbon": 7739,
  " MA": 7740,
  " '.'.": 7741,
  " tert": 7742,
  " school": 7743,
  " electromagnetism": 7744,
  "velocity": 7745,
  " Step": 7746,
  " mutations": 7747,
  " actions": 7748,
  " Bal": 7749,
  "XX": 7750,
  " dimensionless": 7751,
  " rubles": 7752,
  " attraction": 7753,
  " responsible": 7754,
  " precisely": 7755,
  "eq": 7756,
  "fraction": 7757,
  " interf": 7758,
  " partner": 7759,
  " quantities": 7760,
  " requirements": 7761,
  " accelerates": 7762,
  " protein": 7763,
  "stable": 7764,
  " Row": 7765,
  " 1001": 7766,
  "iders": 7767,
  "*(√": 7768,
  " suits": 7769,
  " 46": 7770,
  " dsu": 7771,
  "erature": 7772,
  " thermodynamics": 7773,
  "iewer": 7774,
  "512": 7775,
  "****": 7776,
  " '>'": 7777,
  "algorithm": 7778,
  " graphs": 7779,
  " supers": 7780,
  "coordinates": 7781,
  "what": 7782,
  "ength": 7783,
  " circumcircle": 7784,
  " ethyl": 7785,
  "Vector": 7786,
  " LLONG": 7787,
  "bet": 7788,
  "119": 7789,
  "bre": 7790,
  "iary": 7791,
  "dinger": 7792,
  " 800": 7793,
  " bought": 7794,
  " pink": 7795,
  " 103": 7796,
  " docum": 7797,
  " attacked": 7798,
  " storage": 7799,
  " theoretically": 7800,
  " Δt": 7801,
  " Good": 7802,
  " category": 7803,
  " favorite": 7804,
  " stretch": 7805,
  "hyd": 7806,
  "289": 7807,
  "208": 7808,
  " $$$\\{": 7809,
  "2007": 7810,
  " unpaired": 7811,
  " slic": 7812,
  " producing": 7813,
  " circumradius": 7814,
  " float": 7815,
  "off": 7816,
  "cross": 7817,
  "Build": 7818,
  "van": 7819,
  "cra": 7820,
  "102": 7821,
  "abatic": 7822,
  " Grignard": 7823,
  " appending": 7824,
  " terminology": 7825,
  "subset": 7826,
  "He": 7827,
  "LE": 7828,
  " electronegative": 7829,
  "axies": 7830,
  ")},": 7831,
  " belt": 7832,
  "ympt": 7833,
  "mentum": 7834,
  " 97": 7835,
  " popped": 7836,
  "isect": 7837,
  " generators": 7838,
  "\\)),": 7839,
  "]))": 7840,
  "tens": 7841,
  "ride": 7842,
  "vary": 7843,
  " 69": 7844,
  " boolean": 7845,
  " load": 7846,
  "Te": 7847,
  "yclo": 7848,
  "amming": 7849,
  "ined": 7850,
  " dil": 7851,
  "bru": 7852,
  " Lx": 7853,
  " indexed": 7854,
  " colinear": 7855,
  "xic": 7856,
  "mem": 7857,
  " organism": 7858,
  " о": 7859,
  "Compare": 7860,
  " discard": 7861,
  " manifold": 7862,
  " purple": 7863,
  " (-√": 7864,
  "esium": 7865,
  "ро": 7866,
  "extra": 7867,
  " decompose": 7868,
  "ctually": 7869,
  "\\)**:": 7870,
  " polymer": 7871,
  " occupy": 7872,
  " spent": 7873,
  "lips": 7874,
  " destination": 7875,
  "rö": 7876,
  " tiss": 7877,
  " 2002": 7878,
  "\n                                    ": 7879,
  "Execution": 7880,
  "ст": 7881,
  "choice": 7882,
  " frequent": 7883,
  " subgraph": 7884,
  "call": 7885,
  " Sines": 7886,
  "576": 7887,
  " homogeneous": 7888,
  "dehy": 7889,
  " isothermal": 7890,
  "bruary": 7891,
  "iliy": 7892,
  "higher": 7893,
  "arc": 7894,
  " hypothe": 7895,
  "000000": 7896,
  " reag": 7897,
  "\n                            ": 7898,
  "consecutive": 7899,
  " IR": 7900,
  " ether": 7901,
  " teleport": 7902,
  "=\\": 7903,
  " excited": 7904,
  " nine": 7905,
  "ek": 7906,
  "via": 7907,
  " orbits": 7908,
  " singular": 7909,
  " offers": 7910,
  " send": 7911,
  "irth": 7912,
  " precipitate": 7913,
  "onomic": 7914,
  " member": 7915,
  " evaporation": 7916,
  " borrow": 7917,
  " accounted": 7918,
  "Inter": 7919,
  " Merge": 7920,
  " Time": 7921,
  " network": 7922,
  " degenerate": 7923,
  "rödinger": 7924,
  "......": 7925,
  "LY": 7926,
  " correlation": 7927,
  " returning": 7928,
  " purely": 7929,
  " ord": 7930,
  " syn": 7931,
  " galaxies": 7932,
  "move": 7933,
  " 57": 7934,
  " trumps": 7935,
  " quadruple": 7936,
  " Λ": 7937,
  "++:": 7938,
  " CP": 7939,
  " smo": 7940,
  " NOT": 7941,
  " signals": 7942,
  " synthe": 7943,
  " falling": 7944,
  " sea": 7945,
  "uan": 7946,
  " trains": 7947,
  "|^": 7948,
  " covariant": 7949,
  "bor": 7950,
  "langle": 7951,
  " |+": 7952,
  " votes": 7953,
  " sparse": 7954,
  " 133": 7955,
  " obtain": 7956,
  " chiral": 7957,
  " parities": 7958,
  "aph": 7959,
  " bodies": 7960,
  " capacitance": 7961,
  "inclusive": 7962,
  " Ang": 7963,
  " lying": 7964,
  "separ": 7965,
  " 2007": 7966,
  " Okay": 7967,
  " defines": 7968,
  "187": 7969,
  " conducting": 7970,
  "previous": 7971,
  " squaring": 7972,
  " resistors": 7973,
  " skin": 7974,
  " contributed": 7975,
  "ositions": 7976,
  "Up": 7977,
  " evaluated": 7978,
  " dissip": 7979,
  "](": 7980,
  "cut": 7981,
  "MB": 7982,
  "late": 7983,
  "varphi": 7984,
  " dispersion": 7985,
  "web": 7986,
  " closure": 7987,
  "ustion": 7988,
  "rote": 7989,
  " bounce": 7990,
  " narrow": 7991,
  " ambient": 7992,
  "2019": 7993,
  " collecting": 7994,
  "true": 7995,
  " heated": 7996,
  " ';": 7997,
  "\n              ": 7998,
  " imped": 7999,
  " Quantum": 8000,
  " diameters": 8001,
  "ifications": 8002,
  "ravitational": 8003,
  " attacking": 8004,
  " population": 8005,
  " bag": 8006,
  " Wor": 8007,
  " pencil": 8008,
  " wide": 8009,
  " Equ": 8010,
  "$.<": 8011,
  " Mark": 8012,
  "icograph": 8013,
  " alle": 8014,
  " concave": 8015,
  " bowl": 8016,
  "alth": 8017,
  " impostors": 8018,
  "pass": 8019,
  " calculus": 8020,
  "MAXN": 8021,
  " arcsin": 8022,
  " gover": 8023,
  " sugar": 8024,
  " SI": 8025,
  " composites": 8026,
  " ∠": 8027,
  " ves": 8028,
  " sport": 8029,
  " variations": 8030,
  " wasn": 8031,
  " toward": 8032,
  " language": 8033,
  "729": 8034,
  " eye": 8035,
  " captured": 8036,
  "oton": 8037,
  " taxi": 8038,
  "OG": 8039,
  "idae": 8040,
  " basket": 8041,
  "adding": 8042,
  "event": 8043,
  "sa": 8044,
  " finish": 8045,
  "ometry": 8046,
  "mis": 8047,
  " sky": 8048,
  " driver": 8049,
  " stopping": 8050,
  " sell": 8051,
  " decided": 8052,
  " impro": 8053,
  " humans": 8054,
  "aging": 8055,
  " travers": 8056,
  "iche": 8057,
  " elev": 8058,
  " Standard": 8059,
  " hypothesis": 8060,
  "140": 8061,
  "**|": 8062,
  "177": 8063,
  " infected": 8064,
  " Explanation": 8065,
  "Di": 8066,
  " dry": 8067,
  " minor": 8068,
  " Eng": 8069,
  " DEF": 8070,
  "whe": 8071,
  "itting": 8072,
  " Place": 8073,
  " fer": 8074,
  "osphere": 8075,
  "asc": 8076,
  " Ber": 8077,
  " cit": 8078,
  "ribute": 8079,
  " lexicograph": 8080,
  "osis": 8081,
  " Schrödinger": 8082,
  " February": 8083,
  "rels": 8084,
  " inversely": 8085,
  " norm": 8086,
  "124": 8087,
  " Depending": 8088,
  " notes": 8089,
  "generate": 8090,
  "orbit": 8091,
  " fight": 8092,
  "jk": 8093,
  "ер": 8094,
  "mole": 8095,
  " highly": 8096,
  "she": 8097,
  " lau": 8098,
  "isen": 8099,
  " volumes": 8100,
  " brom": 8101,
  " OD": 8102,
  " pist": 8103,
  " portal": 8104,
  " palindromic": 8105,
  "Analysis": 8106,
  " demonst": 8107,
  "then": 8108,
  " proof": 8109,
  "\\(\\": 8110,
  " NaCl": 8111,
  "464": 8112,
  " bouqu": 8113,
  "strip": 8114,
  " Ka": 8115,
  " Term": 8116,
  " concentrated": 8117,
  " XZ": 8118,
  "harvest": 8119,
  "independent": 8120,
  " translate": 8121,
  " residual": 8122,
  "elace": 8123,
  " dog": 8124,
  "onduct": 8125,
  "flu": 8126,
  "+,": 8127,
  " phrasing": 8128,
  "Same": 8129,
  "uation": 8130,
  "oses": 8131,
  " rates": 8132,
  " Move": 8133,
  " hor": 8134,
  " defic": 8135,
  "hib": 8136,
  " repeats": 8137,
  "phase": 8138,
  "acc": 8139,
  "oms": 8140,
  "smallest": 8141,
  "456": 8142,
  "ground": 8143,
  "GCD": 8144,
  " incremented": 8145,
  "0²": 8146,
  " prediction": 8147,
  "ti": 8148,
  " pseudo": 8149,
  " strain": 8150,
  "assign": 8151,
  "tradiction": 8152,
  " Convert": 8153,
  " distant": 8154,
  " boundaries": 8155,
  " permute": 8156,
  "arent": 8157,
  "craft": 8158,
  " peaks": 8159,
  "mx": 8160,
  " huge": 8161,
  "Only": 8162,
  " bary": 8163,
  "ather": 8164,
  "Convert": 8165,
  "°).": 8166,
  " subtracts": 8167,
  " quantized": 8168,
  " receive": 8169,
  "dagger": 8170,
  " birth": 8171,
  " frictionless": 8172,
  " bead": 8173,
  " periods": 8174,
  " contract": 8175,
  " contracted": 8176,
  " magnitudes": 8177,
  " Ri": 8178,
  " guest": 8179,
  "exist": 8180,
  "neighb": 8181,
  " cyclohex": 8182,
  " 720": 8183,
  "1100": 8184,
  "Day": 8185,
  "Un": 8186,
  " affecting": 8187,
  "Ch": 8188,
  " converts": 8189,
  " sulfate": 8190,
  " features": 8191,
  " precess": 8192,
  " HLD": 8193,
  " rectangular": 8194,
  " doubling": 8195,
  " decays": 8196,
  "126": 8197,
  " circul": 8198,
  " param": 8199,
  " dum": 8200,
  " unvisited": 8201,
  " descendants": 8202,
  " dissolved": 8203,
  " projections": 8204,
  " supports": 8205,
  " Perform": 8206,
  " antisymmetric": 8207,
  " drift": 8208,
  "224": 8209,
  " counterclockwise": 8210,
  " barrels": 8211,
  " Vasiliy": 8212,
  " held": 8213,
  " integrate": 8214,
  " spacing": 8215,
  " parametrize": 8216,
  " degener": 8217,
  "stem": 8218,
  "ina": 8219,
  "Ph": 8220,
  " manip": 8221,
  " came": 8222,
  " prevents": 8223,
  " lock": 8224,
  " Yep": 8225,
  " structural": 8226,
  " |(": 8227,
  "big": 8228,
  "axy": 8229,
  " Hamming": 8230,
  " exha": 8231,
  " abstract": 8232,
  " She": 8233,
  " status": 8234,
  " considerations": 8235,
  " eigenstate": 8236,
  "valent": 8237,
  " BH": 8238,
  " ahead": 8239,
  " alphabet": 8240,
  " orange": 8241,
  "oper": 8242,
  "locked": 8243,
  " };": 8244,
  " dependency": 8245,
  " prepa": 8246,
  "AA": 8247,
  "Putting": 8248,
  " backwards": 8249,
  " doubled": 8250,
  "phere": 8251,
  "πr": 8252,
  " vanish": 8253,
  "iel": 8254,
  " eggs": 8255,
  " streets": 8256,
  "div": 8257,
  " happening": 8258,
  " ⋅": 8259,
  " rhomb": 8260,
  " depos": 8261,
  "=±": 8262,
  " chords": 8263,
  " combustion": 8264,
  "inem": 8265,
  "isson": 8266,
  " (∂": 8267,
  " genre": 8268,
  "}+\\": 8269,
  " detection": 8270,
  " individually": 8271,
  " dl": 8272,
  "atomic": 8273,
  " site": 8274,
  " transp": 8275,
  " placement": 8276,
  " piston": 8277,
  "fish": 8278,
  "mv": 8279,
  "removed": 8280,
  " membrane": 8281,
  "amed": 8282,
  " spend": 8283,
  " bytes": 8284,
  "184": 8285,
  "usted": 8286,
  " rely": 8287,
  " connections": 8288,
  " conven": 8289,
  " ns": 8290,
  "156": 8291,
  " 102": 8292,
  " compartment": 8293,
  " applications": 8294,
  " today": 8295,
  " logarithmic": 8296,
  " activated": 8297,
  " contest": 8298,
  "separated": 8299,
  " expel": 8300,
  " accelerated": 8301,
  "4142": 8302,
  " bottles": 8303,
  "aaa": 8304,
  " genome": 8305,
  "ет": 8306,
  " inelastic": 8307,
  " spf": 8308,
  " smooth": 8309,
  " hair": 8310,
  " touching": 8311,
  " trajectory": 8312,
  " piles": 8313,
  "145": 8314,
  "  ": 8315,
  " 1990": 8316,
  "||": 8317,
  "ival": 8318,
  "DA": 8319,
  "'?": 8320,
  " observe": 8321,
  " coincide": 8322,
  " Difference": 8323,
  "}<": 8324,
  "ilbert": 8325,
  "?<": 8326,
  " 59": 8327,
  "SC": 8328,
  " bra": 8329,
  " adi": 8330,
  "rance": 8331,
  "yclic": 8332,
  " mapped": 8333,
  "Position": 8334,
  "frequency": 8335,
  " submerged": 8336,
  "ωt": 8337,
  " introduced": 8338,
  " watch": 8339,
  " QFT": 8340,
  "oon": 8341,
  " barric": 8342,
  " combines": 8343,
  " messy": 8344,
  " dynamically": 8345,
  " temporary": 8346,
  " 2010": 8347,
  ")+(": 8348,
  "ynman": 8349,
  " HI": 8350,
  " families": 8351,
  " Divisors": 8352,
  " framework": 8353,
  "ule": 8354,
  " predecessors": 8355,
  "Res": 8356,
  " translational": 8357,
  " transmission": 8358,
  " 78": 8359,
  " Edge": 8360,
  " silver": 8361,
  " obstacle": 8362,
  " incenter": 8363,
  " conveyor": 8364,
  " alpinist": 8365,
  " spiderweb": 8366,
  " lever": 8367,
  "different": 8368,
  "three": 8369,
  " /=": 8370,
  " wrote": 8371,
  " deeper": 8372,
  " fluor": 8373,
  "RHS": 8374,
  " px": 8375,
  " cats": 8376,
  " 2020": 8377,
  "owski": 8378,
  "posed": 8379,
  " Contradiction": 8380,
  " technique": 8381,
  "unordered": 8382,
  " beet": 8383,
  " pig": 8384,
  "leading": 8385,
  "lazy": 8386,
  " proced": 8387,
  "Na": 8388,
  "166": 8389,
  " integrand": 8390,
  " Rot": 8391,
  " Select": 8392,
  " gly": 8393,
  " phenyl": 8394,
  " flights": 8395,
  " course": 8396,
  "Pl": 8397,
  " Divide": 8398,
  " tors": 8399,
  "CA": 8400,
  "ancing": 8401,
  " BCD": 8402,
  "degenerate": 8403,
  "columns": 8404,
  " planets": 8405,
  "320": 8406,
  " thrown": 8407,
  " apple": 8408,
  " cathode": 8409,
  "2012": 8410,
  " slices": 8411,
  " stacks": 8412,
  "Cont": 8413,
  "divisors": 8414,
  " mathematically": 8415,
  " captures": 8416,
  " minimizing": 8417,
  " im": 8418,
  " conduction": 8419,
  " everyone": 8420,
  "ka": 8421,
  " impedance": 8422,
  " Compton": 8423,
  "With": 8424,
  "Sp": 8425,
  "actly": 8426,
  "sequence": 8427,
  " Char": 8428,
  "urated": 8429,
  " turning": 8430,
  "utrin": 8431,
  " 89": 8432,
  " leftover": 8433,
  " capitals": 8434,
  " mRNA": 8435,
  " |=": 8436,
  " interfere": 8437,
  "wait": 8438,
  "bisect": 8439,
  "tra": 8440,
  "ycle": 8441,
  " carboxylic": 8442,
  " 2500": 8443,
  "BWBW": 8444,
  "calculate": 8445,
  " Sorted": 8446,
  "Sch": 8447,
  " planar": 8448,
  " Whereas": 8449,
  " denoted": 8450,
  " Miss": 8451,
  "methyl": 8452,
  " 2022": 8453,
  "istical": 8454,
  " Joe": 8455,
  " touches": 8456,
  "emann": 8457,
  "varying": 8458,
  " momenta": 8459,
  "Line": 8460,
  " scat": 8461,
  " established": 8462,
  ")=-": 8463,
  " sinα": 8464,
  " impostor": 8465,
  " chan": 8466,
  "yz": 8467,
  " commun": 8468,
  " validity": 8469,
  " degeneracy": 8470,
  " ep": 8471,
  "vations": 8472,
  "ians": 8473,
  "icles": 8474,
  " land": 8475,
  " painted": 8476,
  " manual": 8477,
  " calls": 8478,
  " (~": 8479,
  " omega": 8480,
  " OB": 8481,
  "isha": 8482,
  " '#": 8483,
  "ufficient": 8484,
  "that": 8485,
  " disconnected": 8486,
  "sw": 8487,
  "zeros": 8488,
  "rie": 8489,
  "[:": 8490,
  "720": 8491,
  " buoyant": 8492,
  " receiver": 8493,
  " crux": 8494,
  "arlier": 8495,
  " breakdown": 8496,
  "finitely": 8497,
  " denotes": 8498,
  " save": 8499,
  " English": 8500,
  " 140": 8501,
  " soft": 8502,
  " tried": 8503,
  "ressure": 8504,
  " exponentially": 8505,
  " repet": 8506,
  "Generate": 8507,
  "bu": 8508,
  " normalization": 8509,
  " bending": 8510,
  " Third": 8511,
  "]/(": 8512,
  " alignment": 8513,
  " prove": 8514,
  "crement": 8515,
  "!.": 8516,
  "sim": 8517,
  " bx": 8518,
  " -(-": 8519,
  "ogram": 8520,
  "lings": 8521,
  " fib": 8522,
  " Gray": 8523,
  "luck": 8524,
  "verte": 8525,
  "mag": 8526,
  "143": 8527,
  " 61": 8528,
  " collinear": 8529,
  "UT": 8530,
  " needing": 8531,
  "rupt": 8532,
  " ammonium": 8533,
  " ^=": 8534,
  " Energy": 8535,
  " Feynman": 8536,
  " evens": 8537,
  "indrical": 8538,
  "roots": 8539,
  "ichain": 8540,
  " sofa": 8541,
  " cd": 8542,
  "Precompute": 8543,
  " insufficient": 8544,
  "Moreover": 8545,
  " conductors": 8546,
  "placed": 8547,
  " Those": 8548,
  "gest": 8549,
  " pulled": 8550,
  " fish": 8551,
  " computer": 8552,
  "*.": 8553,
  " password": 8554,
  "letes": 8555,
  "DB": 8556,
  " congruence": 8557,
  "ividing": 8558,
  "CB": 8559,
  " ambig": 8560,
  "210": 8561,
  " toxic": 8562,
  "{}": 8563,
  " rods": 8564,
  " ramp": 8565,
  " galaxy": 8566,
  " capacitors": 8567,
  "cury": 8568,
  " annihilation": 8569,
  "iscriminant": 8570,
  "parallel": 8571,
  " elsewhere": 8572,
  "Verification": 8573,
  " distributions": 8574,
  "Column": 8575,
  "-\\": 8576,
  " apparent": 8577,
  "oot": 8578,
  "233": 8579,
  "    ": 8580,
  "999999": 8581,
  " crim": 8582,
  " expands": 8583,
  "liers": 8584,
  "idine": 8585,
  " slits": 8586,
  " Her": 8587,
  "$$$:": 8588,
  "remove": 8589,
  " physically": 8590,
  " conflicts": 8591,
  " bonded": 8592,
  "venth": 8593,
  "UP": 8594,
  " adiabatic": 8595,
  " vibrations": 8596,
  " nitrate": 8597,
  " gift": 8598,
  " fermionic": 8599,
  " integrals": 8600,
  "ни": 8601,
  " tied": 8602,
  "chain": 8603,
  " anymore": 8604,
  " incrementing": 8605,
  " conventions": 8606,
  " transmitted": 8607,
  " route": 8608,
  "vertex": 8609,
  " summed": 8610,
  "licating": 8611,
  " 74": 8612,
  " freely": 8613,
  "herence": 8614,
  " respir": 8615,
  " belongs": 8616,
  " overcount": 8617,
  "Collect": 8618,
  " moder": 8619,
  "ns": 8620,
  " consumed": 8621,
  " emitting": 8622,
  "cosity": 8623,
  "ythag": 8624,
  " ethanol": 8625,
  " tanθ": 8626,
  " sent": 8627,
  " undo": 8628,
  " metro": 8629,
  " haven": 8630,
  "Solve": 8631,
  "eding": 8632,
  "full": 8633,
  " kinem": 8634,
  "DC": 8635,
  " discontin": 8636,
  " diagrams": 8637,
  "dehyde": 8638,
  " cars": 8639,
  "cessive": 8640,
  " selects": 8641,
  " prob": 8642,
  " Part": 8643,
  " INT": 8644,
  " overcomp": 8645,
  " 68": 8646,
  "288": 8647,
  " exhibit": 8648,
  " ill": 8649,
  " 2021": 8650,
  "roc": 8651,
  "lr": 8652,
  "inner": 8653,
  " Binary": 8654,
  "2010": 8655,
  "Options": 8656,
  " hemis": 8657,
  " \\)).": 8658,
  "PS": 8659,
  "comm": 8660,
  "ening": 8661,
  " 3000": 8662,
  " absorbing": 8663,
  " clean": 8664,
  " Ω": 8665,
  " buildings": 8666,
  " factored": 8667,
  " Riemann": 8668,
  " arm": 8669,
  " Meth": 8670,
  " bene": 8671,
  "rus": 8672,
  " Pythag": 8673,
  "fly": 8674,
  " pipe": 8675,
  " stereo": 8676,
  "ultiples": 8677,
  " Between": 8678,
  "PA": 8679,
  " analogous": 8680,
  "pto": 8681,
  " repel": 8682,
  "auchy": 8683,
  " recent": 8684,
  "Pair": 8685,
  " Lagrange": 8686,
  " ketone": 8687,
  " fluctuations": 8688,
  " heads": 8689,
  " vaporization": 8690,
  " sportsm": 8691,
  "inkowski": 8692,
  " 2²": 8693,
  " simplification": 8694,
  "}}\\)": 8695,
  "charge": 8696,
  "ativistic": 8697,
  " logarithms": 8698,
  " stands": 8699,
  " parametrization": 8700,
  " meant": 8701,
  "isenberg": 8702,
  "875": 8703,
  " oxidized": 8704,
  " reacting": 8705,
  "itt": 8706,
  " Sund": 8707,
  " socks": 8708,
  " solely": 8709,
  "mma": 8710,
  " health": 8711,
  "spin": 8712,
  " shoelace": 8713,
  " counteract": 8714,
  " frictional": 8715,
  "LCA": 8716,
  "flo": 8717,
  "adder": 8718,
  " teles": 8719,
  " wood": 8720,
  " equatorial": 8721,
  "omorphism": 8722,
  "blocks": 8723,
  "lucky": 8724,
  "ope": 8725,
  "osure": 8726,
  " specul": 8727,
  " nxt": 8728,
  " isotop": 8729,
  " statistical": 8730,
  " supply": 8731,
  " hill": 8732,
  " approximated": 8733,
  "aged": 8734,
  " High": 8735,
  "erboard": 8736,
  " rephr": 8737,
  " interlea": 8738,
  " sus": 8739,
  " feel": 8740,
  "iped": 8741,
  " Cauchy": 8742,
  "Bob": 8743,
  "colored": 8744,
  "rice": 8745,
  " partially": 8746,
  "hematics": 8747,
  " Steps": 8748,
  " overcome": 8749,
  " Par": 8750,
  "ichever": 8751,
  " \"-": 8752,
  " circumcenter": 8753,
  " cyclop": 8754,
  "info": 8755,
  " observers": 8756,
  "rates": 8757,
  " 1500": 8758,
  " organic": 8759,
  " \\(|": 8760,
  " adjustment": 8761,
  "rolled": 8762,
  " ΔG": 8763,
  " quests": 8764,
  " neck": 8765,
  "\n\n                                         ": 8766,
  "(...": 8767,
  "peat": 8768,
  " Current": 8769,
  "sat": 8770,
  " $$$|": 8771,
  " weighted": 8772,
  "atever": 8773,
  "$<": 8774,
  " favorable": 8775,
  " Model": 8776,
  " tok": 8777,
  " hypothetical": 8778,
  "jection": 8779,
  " Alright": 8780,
  "\"?": 8781,
  "heses": 8782,
  "uniform": 8783,
  " criminals": 8784,
  " throughout": 8785,
  "iar": 8786,
  " aff": 8787,
  " barrier": 8788,
  "tuple": 8789,
  " ambiguity": 8790,
  " lexicographically": 8791,
  " deviation": 8792,
  "CE": 8793,
  " covalent": 8794,
  " II": 8795,
  " led": 8796,
  "State": 8797,
  "cer": 8798,
  " ΔU": 8799,
  " steel": 8800,
  " scalars": 8801,
  " excitation": 8802,
  " magnesium": 8803,
  " disturb": 8804,
  "ère": 8805,
  " moth": 8806,
  " liana": 8807,
  "ynamic": 8808,
  "their": 8809,
  "bability": 8810,
  " connectivity": 8811,
  " \\([": 8812,
  " opposing": 8813,
  "found": 8814,
  " 576": 8815,
  " tilt": 8816,
  " alive": 8817,
  "ources": 8818,
  " cosmic": 8819,
  " mill": 8820,
  " absorbs": 8821,
  " cyl": 8822,
  " cylindrical": 8823,
  " kick": 8824,
  " HA": 8825,
  "owels": 8826,
  " criter": 8827,
  "MST": 8828,
  "versely": 8829,
  " electronegativity": 8830,
  "2009": 8831,
  " foci": 8832,
  " maximizing": 8833,
  " lumin": 8834,
  " da": 8835,
  "238": 8836,
  "cow": 8837,
  "elp": 8838,
  " Rel": 8839,
  "orpor": 8840,
  " deterministic": 8841,
  "MOD": 8842,
  " pulling": 8843,
  " tmp": 8844,
  "=(-": 8845,
  " receptors": 8846,
  " slice": 8847,
  "single": 8848,
  " astron": 8849,
  " confirming": 8850,
  " traversing": 8851,
  " west": 8852,
  " stir": 8853,
  " tit": 8854,
  " perce": 8855,
  " Big": 8856,
  " lighter": 8857,
  " muon": 8858,
  " cyclist": 8859,
  " hing": 8860,
  " Δx": 8861,
  " principal": 8862,
  "117": 8863,
  "eries": 8864,
  " overcomplicating": 8865,
  " tau": 8866,
  " aver": 8867,
  "cope": 8868,
  " SP": 8869,
  " collaps": 8870,
  " Heisenberg": 8871,
  "025": 8872,
  " multipliers": 8873,
  "cast": 8874,
  " AH": 8875,
  " unblocked": 8876,
  " sender": 8877,
  " initialize": 8878,
  "uling": 8879,
  " randomly": 8880,
  " driving": 8881,
  " rearrangement": 8882,
  " carriers": 8883,
  " Poisson": 8884,
  "capit": 8885,
  "lobin": 8886,
  " tend": 8887,
  " versions": 8888,
  "rays": 8889,
  " bug": 8890,
  " sack": 8891,
  " petals": 8892,
  " Normal": 8893,
  " simplest": 8894,
  " incorpor": 8895,
  "ichi": 8896,
  " Min": 8897,
  "copy": 8898,
  " modification": 8899,
  " deepest": 8900,
  " dissolve": 8901,
  "kady": 8902,
  "ли": 8903,
  " bosonic": 8904,
  "fuel": 8905,
  " carts": 8906,
  " alkene": 8907,
  " creams": 8908,
  " therefore": 8909,
  " antenna": 8910,
  "verting": 8911,
  " tie": 8912,
  "mes": 8913,
  " divisions": 8914,
  " equid": 8915,
  "162": 8916,
  "ano": 8917,
  "metal": 8918,
  " epo": 8919,
  " sle": 8920,
  " incompressible": 8921,
  " swim": 8922,
  " everywhere": 8923,
  "\\}": 8924,
  " checkerboard": 8925,
  " droplets": 8926,
  "some": 8927,
  " condensation": 8928,
  " violates": 8929,
  " mechanisms": 8930,
  " tip": 8931,
  "local": 8932,
  " Mr": 8933,
  "OC": 8934,
  "draw": 8935,
  "bond": 8936,
  "tight": 8937,
  "anies": 8938,
  " mn": 8939,
  " inco": 8940,
  " evidence": 8941,
  " lear": 8942,
  " intensive": 8943,
  " picked": 8944,
  "istant": 8945,
  "lg": 8946,
  " Sc": 8947,
  " yuan": 8948,
  "arbon": 8949,
  "balanced": 8950,
  " Yi": 8951,
  "zeta": 8952,
  " restrict": 8953,
  "class": 8954,
  "rete": 8955,
  " pret": 8956,
  "subarray": 8957,
  " preserve": 8958,
  "cases": 8959,
  "aab": 8960,
  " hydrogens": 8961,
  " 2014": 8962,
  "othermic": 8963,
  " Sasha": 8964,
  " HC": 8965,
  " ped": 8966,
  " creature": 8967,
  " wrap": 8968,
  "sibility": 8969,
  " whatever": 8970,
  " refraction": 8971,
  " poles": 8972,
  "324": 8973,
  " antic": 8974,
  "attack": 8975,
  " promot": 8976,
  "leqslant": 8977,
  "COOH": 8978,
  "sor": 8979,
  " detailed": 8980,
  "Can": 8981,
  " Hilbert": 8982,
  " ranks": 8983,
  "Const": 8984,
  " pu": 8985,
  " $(": 8986,
  " circumference": 8987,
  " coup": 8988,
  "olog": 8989,
  " translations": 8990,
  "pol": 8991,
  " elevator": 8992,
  " crick": 8993,
  "ckets": 8994,
  " athletes": 8995,
  " Minkowski": 8996,
  " recap": 8997,
  " escap": 8998,
  " 225": 8999,
  " 1010": 9000,
  " fat": 9001,
  " violate": 9002,
  " renormal": 9003,
  " '*',": 9004,
  " pawn": 9005,
  " tim": 9006,
  " [](": 9007,
  " opens": 9008,
  "))]": 9009,
  " Bl": 9010,
  " concrete": 9011,
  " whichever": 9012,
  " harm": 9013,
  "uced": 9014,
  " Column": 9015,
  " parentheses": 9016,
  "bad": 9017,
  " 220": 9018,
  " identif": 9019,
  " zinc": 9020,
  "xyz": 9021,
  "ernary": 9022,
  "2018": 9023,
  " tokens": 9024,
  " obtuse": 9025,
  " books": 9026,
  " avoids": 9027,
  " rise": 9028,
  "box": 9029,
  " traveler": 9030,
  "222": 9031,
  " Stack": 9032,
  "terms": 9033,
  " Mon": 9034,
  "cha": 9035,
  " ΔH": 9036,
  "555": 9037,
  " jumping": 9038,
  "anti": 9039,
  " springs": 9040,
  " Line": 9041,
  "UPAC": 9042,
  " thermodynamic": 9043,
  " subgrid": 9044,
  " Xiao": 9045,
  " importance": 9046,
  "hour": 9047,
  " minion": 9048,
  " →-": 9049,
  "866": 9050,
  " accepted": 9051,
  " Jia": 9052,
  " hemo": 9053,
  " girls": 9054,
  "sho": 9055,
  " PM": 9056,
  " replacements": 9057,
  "akers": 9058,
  "onn": 9059,
  "grass": 9060,
  "could": 9061,
  " dummy": 9062,
  " suggested": 9063,
  "Determine": 9064,
  " conventional": 9065,
  " dual": 9066,
  " ended": 9067,
  " subgroup": 9068,
  "mL": 9069,
  " shuff": 9070,
  " viscosity": 9071,
  " convection": 9072,
  "allic": 9073,
  "good": 9074,
  "ylene": 9075,
  " scient": 9076,
  " ωt": 9077,
  "Solution": 9078,
  " inconsistent": 9079,
  " mistakes": 9080,
  " balances": 9081,
  " slowly": 9082,
  ">)/": 9083,
  " hidden": 9084,
  " coding": 9085,
  " induce": 9086,
  "zzle": 9087,
  " weighing": 9088,
  " brown": 9089,
  " ternary": 9090,
  " Cs": 9091,
  " denomination": 9092,
  " Hand": 9093,
  " modifications": 9094,
  " |-": 9095,
  " surrounded": 9096,
  " experiences": 9097,
  "286": 9098,
  " revis": 9099,
  " stripe": 9100,
  " participants": 9101,
  " Chane": 9102,
  "eris": 9103,
  "奇数": 9104,
  " familiar": 9105,
  "ierarch": 9106,
  "Problem": 9107,
  " crystals": 9108,
  "iff": 9109,
  " equidistant": 9110,
  "table": 9111,
  " GM": 9112,
  " walking": 9113,
  " cosα": 9114,
  " liar": 9115,
  " Cel": 9116,
  " IUPAC": 9117,
  " Fl": 9118,
  " paid": 9119,
  " ny": 9120,
  " buying": 9121,
  " Simplifying": 9122,
  "rbegin": 9123,
  " hierarch": 9124,
  "ubbles": 9125,
  "yp": 9126,
  " attach": 9127,
  " ΔT": 9128,
  " exception": 9129,
  " SA": 9130,
  "middle": 9131,
  "2500": 9132,
  " competitor": 9133,
  "EM": 9134,
  " д": 9135,
  " monoch": 9136,
  "]?": 9137,
  " Keep": 9138,
  " naturally": 9139,
  " received": 9140,
  "Subtracting": 9141,
  " });": 9142,
  "°),": 9143,
  " decreased": 9144,
  "ected": 9145,
  " bounces": 9146,
  " 270": 9147,
  "house": 9148,
  " HF": 9149,
  "2005": 9150,
  " spinor": 9151,
  " gun": 9152,
  " Union": 9153,
  " appended": 9154,
  "combination": 9155,
  "]/[": 9156,
  " nope": 9157,
  " deformation": 9158,
  " confirmed": 9159,
  " sig": 9160,
  " virus": 9161,
  " hemisphere": 9162,
  "flips": 9163,
  " seventh": 9164,
  "hom": 9165,
  " fruits": 9166,
  " totaling": 9167,
  "343": 9168,
  " Form": 9169,
  "poly": 9170,
  "oun": 9171,
  "chlor": 9172,
  " 83": 9173,
  " −": 9174,
  "πε": 9175,
  " elementary": 9176,
  "inger": 9177,
  " vill": 9178,
  "trump": 9179,
  "PE": 9180,
  " world": 9181,
  " floors": 9182,
  "htt": 9183,
  "ynthesis": 9184,
  "runs": 9185,
  " fung": 9186,
  " '?',": 9187,
  "ricks": 9188,
  "clust": 9189,
  " hardness": 9190,
  " brute": 9191,
  "roph": 9192,
  " stoichi": 9193,
  "Query": 9194,
  "utrino": 9195,
  "uterium": 9196,
  " extensions": 9197,
  "bed": 9198,
  "rr": 9199,
  " differs": 9200,
  " interacting": 9201,
  " piecewise": 9202,
  "cium": 9203,
  " girl": 9204,
  "semble": 9205,
  "task": 9206,
  "change": 9207,
  "molecular": 9208,
  " ∧": 9209,
  " bubbles": 9210,
  "ball": 9211,
  " estimate": 9212,
  " evaluate": 9213,
  "002": 9214,
  " transc": 9215,
  " serves": 9216,
  " stair": 9217,
  " acidity": 9218,
  " citiz": 9219,
  " art": 9220,
  " surplus": 9221,
  " simulating": 9222,
  "particle": 9223,
  " destruct": 9224,
  " rhombus": 9225,
  " skew": 9226,
  " guarantee": 9227,
  "XO": 9228,
  "exponents": 9229,
  " Ampère": 9230,
  "rogs": 9231,
  " cups": 9232,
  " init": 9233,
  "))(": 9234,
  " cx": 9235,
  " erasing": 9236,
  " distinction": 9237,
  " SegmentTree": 9238,
  " acetate": 9239,
  "osity": 9240,
  " inches": 9241,
  " |**": 9242,
  "ritical": 9243,
  " м": 9244,
  "za": 9245,
  "Create": 9246,
  "bining": 9247,
  " equate": 9248,
  " rapidly": 9249,
  "wave": 9250,
  " nearly": 9251,
  " pretty": 9252,
  "}^\\": 9253,
  "366": 9254,
  " suffic": 9255,
  " substrate": 9256,
  " mostly": 9257,
  " spacecraft": 9258,
  "aylor": 9259,
  " xyz": 9260,
  " 2048": 9261,
  " ξ": 9262,
  " cod": 9263,
  " claw": 9264,
  " extends": 9265,
  "≈(": 9266,
  " bisectors": 9267,
  " specifying": 9268,
  " amplitudes": 9269,
  "+.": 9270,
  "aste": 9271,
  " wheel": 9272,
  " doll": 9273,
  " resem": 9274,
  " quantization": 9275,
  "XZ": 9276,
  " monochromatic": 9277,
  " }.": 9278,
  " sites": 9279,
  "uper": 9280,
  " traveled": 9281,
  "lements": 9282,
  " mother": 9283,
  " 73": 9284,
  "eat": 9285,
  " semiconduct": 9286,
  " service": 9287,
  "itesimal": 9288,
  " Looking": 9289,
  " arrived": 9290,
  "hemical": 9291,
  " Although": 9292,
  " vort": 9293,
  " 350": 9294,
  " spiral": 9295,
  "illed": 9296,
  " overta": 9297,
  " file": 9298,
  " expelled": 9299,
  "depos": 9300,
  " 2018": 9301,
  " inverses": 9302,
  "**)": 9303,
  "era": 9304,
  "Numbers": 9305,
  " oxidizing": 9306,
  " oscillation": 9307,
  " $$$-": 9308,
  " Ma": 9309,
  " preventing": 9310,
  " oscillating": 9311,
  " conjugated": 9312,
  "engers": 9313,
  " prices": 9314,
  " OUT": 9315,
  " tertiary": 9316,
  " bricks": 9317,
  "coproc": 9318,
  "batch": 9319,
  "={": 9320,
  " leak": 9321,
  " arise": 9322,
  ")<": 9323,
  "signed": 9324,
  "multiply": 9325,
  "membered": 9326,
  " yields": 9327,
  " hat": 9328,
  " videos": 9329,
  "HC": 9330,
  " flags": 9331,
  " metabo": 9332,
  " switching": 9333,
  "atio": 9334,
  " Ksp": 9335,
  "..........": 9336,
  " partitioned": 9337,
  " characteristics": 9338,
  " essentially": 9339,
  "appear": 9340,
  " observations": 9341,
  " Divided": 9342,
  "bow": 9343,
  "Cross": 9344,
  "resi": 9345,
  " anode": 9346,
  " Plugging": 9347,
  " по": 9348,
  " dise": 9349,
  " manner": 9350,
  " releases": 9351,
  " AA": 9352,
  " crossings": 9353,
  " instructions": 9354,
  " passengers": 9355,
  " stolen": 9356,
  " Ms": 9357,
  "limit": 9358,
  " deficit": 9359,
  " incomplete": 9360,
  "rend": 9361,
  " contrast": 9362,
  "168": 9363,
  "spec": 9364,
  " maintains": 9365,
  " heaps": 9366,
  " appearing": 9367,
  "\\)).": 9368,
  " 88": 9369,
  " 1100": 9370,
  "MO": 9371,
  "las": 9372,
  " Pair": 9373,
  " CF": 9374,
  " ni": 9375,
  " Frid": 9376,
  " convenience": 9377,
  " unlocked": 9378,
  "inverse": 9379,
  " Ant": 9380,
  "divis": 9381,
  "centric": 9382,
  " techniques": 9383,
  " indirect": 9384,
  "By": 9385,
  "750": 9386,
  " cancell": 9387,
  "neling": 9388,
  "}_{": 9389,
  "acles": 9390,
  "iθ": 9391,
  "171": 9392,
  " Arkady": 9393,
  " homework": 9394,
  "vative": 9395,
  "πk": 9396,
  "aughter": 9397,
  "aur": 9398,
  "(-\\": 9399,
  " prin": 9400,
  " providing": 9401,
  "133": 9402,
  " logical": 9403,
  "pq": 9404,
  " Fermi": 9405,
  " geodes": 9406,
  "tor": 9407,
  "ades": 9408,
  " classific": 9409,
  "ressed": 9410,
  " laun": 9411,
  "ffective": 9412,
  "zo": 9413,
  " vec": 9414,
  " rider": 9415,
  " hats": 9416,
  " KMP": 9417,
  "ectors": 9418,
  " video": 9419,
  " subspace": 9420,
  "alt": 9421,
  " saf": 9422,
  " twist": 9423,
  " eligible": 9424,
  "ertial": 9425,
  " chun": 9426,
  "reat": 9427,
  " transpose": 9428,
  " cleared": 9429,
  "1011": 9430,
  " dissociation": 9431,
  "420": 9432,
  " OM": 9433,
  "itted": 9434,
  " cookies": 9435,
  " torsion": 9436,
  "propto": 9437,
  " nut": 9438,
  "units": 9439,
  " diverse": 9440,
  " Length": 9441,
  " Non": 9442,
  " encounter": 9443,
  " palindromes": 9444,
  " pages": 9445,
  " tall": 9446,
  "erts": 9447,
  " &=": 9448,
  " χ": 9449,
  "dies": 9450,
  " BAC": 9451,
  "207": 9452,
  "iter": 9453,
  "uk": 9454,
  " ∞": 9455,
  "ological": 9456,
  "]*": 9457,
  " Block": 9458,
  " asympt": 9459,
  " chip": 9460,
  " 3²": 9461,
  " '-'": 9462,
  "stone": 9463,
  " displace": 9464,
  " propagates": 9465,
  " shot": 9466,
  " reactants": 9467,
  " drink": 9468,
  " nucleotides": 9469,
  "480": 9470,
  " background": 9471,
  "spring": 9472,
  "metals": 9473,
  " replaces": 9474,
  " 990": 9475,
  " isotopes": 9476,
  "\n\n                           ": 9477,
  " derangement": 9478,
  "Schwarz": 9479,
  "2004": 9480,
  " castles": 9481,
  "/\\": 9482,
  " macroscopic": 9483,
  " indefinitely": 9484,
  " extending": 9485,
  " persist": 9486,
  " sees": 9487,
  " Ind": 9488,
  " siblings": 9489,
  "oltz": 9490,
  "oltzmann": 9491,
  " chips": 9492,
  " octahedron": 9493,
  "pattern": 9494,
  " dip": 9495,
  " boost": 9496,
  " tries": 9497,
  "Max": 9498,
  " attempts": 9499,
  "-,": 9500,
  "met": 9501,
  " ammonia": 9502,
  " clocks": 9503,
  "net": 9504,
  " exten": 9505,
  " heter": 9506,
  " hybrid": 9507,
  " PV": 9508,
  " BR": 9509,
  " 99999": 9510,
  " AdS": 9511,
  "awking": 9512,
  " pillar": 9513,
  " pentagons": 9514,
  "liest": 9515,
  "uing": 9516,
  " dz": 9517,
  " traditional": 9518,
  "ering": 9519,
  "...\"": 9520,
  " shield": 9521,
  "}^{\\": 9522,
  " modd": 9523,
  " ADC": 9524,
  " educ": 9525,
  " curves": 9526,
  " exerts": 9527,
  " testcase": 9528,
  " \"\\": 9529,
  " tour": 9530,
  " package": 9531,
  "129": 9532,
  " boys": 9533,
  " bicyclo": 9534,
  " BAD": 9535,
  " lf": 9536,
  " barricade": 9537,
  "Use": 9538,
  "det": 9539,
  " Doesn": 9540,
  " stem": 9541,
  "Square": 9542,
  " _{": 9543,
  " Applying": 9544,
  " unstable": 9545,
  "}*": 9546,
  " tanks": 9547,
  " fract": 9548,
  " lpos": 9549,
  " advanced": 9550,
  "relativistic": 9551,
  " Processing": 9552,
  "136": 9553,
  " fives": 9554,
  "denominator": 9555,
  "fast": 9556,
  " manually": 9557,
  "!)": 9558,
  ")]^": 9559,
  "etermin": 9560,
  " circuits": 9561,
  "1998": 9562,
  " denominations": 9563,
  "abab": 9564,
  " )(": 9565,
  "lues": 9566,
  " externally": 9567,
  " fire": 9568,
  " procedure": 9569,
  " influenced": 9570,
  " scan": 9571,
  "))/(": 9572,
  " ladder": 9573,
  " RDB": 9574,
  " pushes": 9575,
  " rub": 9576,
  " fac": 9577,
  "ometers": 9578,
  "'^": 9579,
  " enumerate": 9580,
  " solute": 9581,
  " exchanges": 9582,
  " 375": 9583,
  " removals": 9584,
  "LHS": 9585,
  " soil": 9586,
  " activation": 9587,
  "2006": 9588,
  " tangency": 9589,
  " reciproc": 9590,
  "ardo": 9591,
  " Mary": 9592,
  " 9999": 9593,
  " batches": 9594,
  "prop": 9595,
  "\n                               ": 9596,
  "earliest": 9597,
  "ть": 9598,
  " ester": 9599,
  " '>',": 9600,
  " bullet": 9601,
  "deposits": 9602,
  " cler": 9603,
  " rare": 9604,
  " Perfect": 9605,
  "rade": 9606,
  "cx": 9607,
  " conform": 9608,
  " coherent": 9609,
  " spiders": 9610,
  " mount": 9611,
  " escal": 9612,
  " adult": 9613,
  "MIN": 9614,
  " cance": 9615,
  " canceled": 9616,
  " Δp": 9617,
  "iana": 9618,
  " altitudes": 9619,
  " weighings": 9620,
  "ety": 9621,
  " dice": 9622,
  " predecessor": 9623,
  "ulated": 9624,
  "otonic": 9625,
  " Che": 9626,
  " nonlinear": 9627,
  " semip": 9628,
  " harvest": 9629,
  " cheaper": 9630,
  " 2023": 9631,
  " XORs": 9632,
  " Grass": 9633,
  "ouv": 9634,
  "ury": 9635,
  "Type": 9636,
  "activ": 9637,
  " balancing": 9638,
  "}\\))": 9639,
  " toggle": 9640,
  " Conversely": 9641,
  "marked": 9642,
  "play": 9643,
  "011": 9644,
  "flip": 9645,
  " Krus": 9646,
  "Segment": 9647,
  "495": 9648,
  " tunneling": 9649,
  " bucket": 9650,
  "996": 9651,
  " audience": 9652,
  " relies": 9653,
  " shear": 9654,
  " >>=": 9655,
  "ifying": 9656,
  " HO": 9657,
  " recompute": 9658,
  " 62": 9659,
  "255": 9660,
  " Carbon": 9661,
  ">>>": 9662,
  " returned": 9663,
  "etya": 9664,
  " magnetization": 9665,
  "pc": 9666,
  "loid": 9667,
  "riors": 9668,
  "trailing": 9669,
  "Fenwick": 9670,
  " situations": 9671,
  " intermolecular": 9672,
  "just": 9673,
  "atus": 9674,
  " enh": 9675,
  "underline": 9676,
  " speculative": 9677,
  ")}\\": 9678,
  " percentages": 9679,
  " solv": 9680,
  " cele": 9681,
  "lli": 9682,
  "==": 9683,
  " defect": 9684,
  "SCII": 9685,
  " conservative": 9686,
  " coeff": 9687,
  " orientations": 9688,
  " warriors": 9689,
  " antichain": 9690,
  " recon": 9691,
  "Well": 9692,
  "otons": 9693,
  " reli": 9694,
  " Cor": 9695,
  " lif": 9696,
  "intersection": 9697,
  " cation": 9698,
  "globin": 9699,
  " fluids": 9700,
  "oline": 9701,
  " walks": 9702,
  " propagator": 9703,
  " ϕ": 9704,
  "mc": 9705,
  " explained": 9706,
  "adratic": 9707,
  "dom": 9708,
  " py": 9709,
  " isotropic": 9710,
  " deuterium": 9711,
  " mono": 9712,
  " advant": 9713,
  " correction": 9714,
  " solids": 9715,
  " Imp": 9716,
  " 93": 9717,
  "urope": 9718,
  " mor": 9719,
  "aterp": 9720,
  "mex": 9721,
  " hexagonal": 9722,
  " Solve": 9723,
  " 94": 9724,
  " $$$$$$": 9725,
  "there": 9726,
  " pion": 9727,
  "versity": 9728,
  " 1111": 9729,
  "ervo": 9730,
  "ervoir": 9731,
  "speed": 9732,
  "Hz": 9733,
  " inclined": 9734,
  "]],": 9735,
  " unity": 9736,
  " sleep": 9737,
  "ogo": 9738,
  " repeatedly": 9739,
  " report": 9740,
  " chromosomes": 9741,
  "limits": 9742,
  " trait": 9743,
  " Setting": 9744,
  "large": 9745,
  " oil": 9746,
  "isot": 9747,
  " osm": 9748,
  " similarity": 9749,
  " quadratics": 9750,
  " hemoglobin": 9751,
  "015": 9752,
  "\\}$$$": 9753,
  " Dis": 9754,
  " escalator": 9755,
  " bank": 9756,
  " fluores": 9757,
  "Team": 9758,
  " infinitesimal": 9759,
  " GF": 9760,
  " suggesting": 9761,
  "whether": 9762,
  ".**": 9763,
  "iffness": 9764,
  " male": 9765,
  " stages": 9766,
  " rolls": 9767,
  " lemma": 9768,
  " SB": 9769,
  "|).": 9770,
  " flowing": 9771,
  " alkyl": 9772,
  "solution": 9773,
  "anium": 9774,
  "504": 9775,
  "team": 9776,
  " repulsive": 9777,
  " recognize": 9778,
  "ional": 9779,
  " arms": 9780,
  " strand": 9781,
  " exclusion": 9782,
  " ordinary": 9783,
  " signed": 9784,
  " extensive": 9785,
  " dq": 9786,
  " codes": 9787,
  " 320": 9788,
  "\n\n                          ": 9789,
  "'_{": 9790,
  " wolves": 9791,
  "bold": 9792,
  " soldiers": 9793,
  "atie": 9794,
  " messed": 9795,
  "represent": 9796,
  "bility": 9797,
  "dden": 9798,
  "une": 9799,
  "239": 9800,
  "does": 9801,
  "BE": 9802,
  " saved": 9803,
  " reservoir": 9804,
  "249": 9805,
  "oding": 9806,
  " alcohols": 9807,
  " sinx": 9808,
  "iad": 9809,
  " crate": 9810,
  " Sunday": 9811,
  "ogh": 9812,
  " 106": 9813,
  " sust": 9814,
  "245": 9815,
  " Su": 9816,
  " dm": 9817,
  " 1²": 9818,
  " Bre": 9819,
  "unit": 9820,
  " Des": 9821,
  " skips": 9822,
  " elliptical": 9823,
  "squa": 9824,
  "116": 9825,
  " 71": 9826,
  "pposite": 9827,
  " electronic": 9828,
  "()(": 9829,
  " Kb": 9830,
  " shock": 9831,
  "ffel": 9832,
  "desired": 9833,
  " reversals": 9834,
  " aₙ": 9835,
  "ffeine": 9836,
  " capturing": 9837,
  "336": 9838,
  "ii": 9839,
  "vectors": 9840,
  " decomposed": 9841,
  "fall": 9842,
  " popping": 9843,
  " Interval": 9844,
  "itivity": 9845,
  "orean": 9846,
  " precession": 9847,
  " iso": 9848,
  "cube": 9849,
  " iod": 9850,
  " sail": 9851,
  "score": 9852,
  " ba": 9853,
  " caterp": 9854,
  "667": 9855,
  "oucher": 9856,
  " \"__": 9857,
  "__\":": 9858,
  " Our": 9859,
  "ondition": 9860,
  "dv": 9861,
  " gold": 9862,
  "'}": 9863,
  " complementary": 9864,
  " undergoes": 9865,
  ")...": 9866,
  " magnets": 9867,
  " inward": 9868,
  " Sw": 9869,
  " gard": 9870,
  " brain": 9871,
  "4²": 9872,
  " cones": 9873,
  "Person": 9874,
  " inhibit": 9875,
  "rotating": 9876,
  "strings": 9877,
  " Friday": 9878,
  "='": 9879,
  " Position": 9880,
  " Coordinates": 9881,
  " Vector": 9882,
  "alyzing": 9883,
  " },": 9884,
  " Numbers": 9885,
  "urface": 9886,
  "-.": 9887,
  "167": 9888,
  "chron": 9889,
  "}}\\": 9890,
  " crossed": 9891,
  " periodicity": 9892,
  " veh": 9893,
  "SA": 9894,
  " multiplier": 9895,
  " showing": 9896,
  "824": 9897,
  "201": 9898,
  "entry": 9899,
  " kid": 9900,
  " 288": 9901,
  "Either": 9902,
  "sized": 9903,
  "hard": 9904,
  "Count": 9905,
  "km": 9906,
  "orth": 9907,
  "004": 9908,
  "cat": 9909,
  " sharing": 9910,
  " Method": 9911,
  "235": 9912,
  " Higher": 9913,
  "igits": 9914,
  " kilogram": 9915,
  " ∂/∂": 9916,
  " sweet": 9917,
  "meric": 9918,
  " DM": 9919,
  " nj": 9920,
  "dex": 9921,
  " 1998": 9922,
  " schedule": 9923,
  " categories": 9924,
  "inertial": 9925,
  "cous": 9926,
  " numerically": 9927,
  " late": 9928,
  "130": 9929,
  " classif": 9930,
  "lands": 9931,
  "orus": 9932,
  " butter": 9933,
  " deceleration": 9934,
  "ologous": 9935,
  " Different": 9936,
  " 1200": 9937,
  "₀²": 9938,
  " Europe": 9939,
  "ille": 9940,
  "Ind": 9941,
  "]--;": 9942,
  " ts": 9943,
  ":]": 9944,
  "roglie": 9945,
  " carries": 9946,
  " night": 9947,
  " denser": 9948,
  "itro": 9949,
  " SC": 9950,
  "nal": 9951,
  "elvin": 9952,
  " older": 9953,
  "ock": 9954,
  "tched": 9955,
  "202": 9956,
  " develo": 9957,
  " compens": 9958,
  " rated": 9959,
  " reciprocals": 9960,
  " BL": 9961,
  " Ly": 9962,
  "prot": 9963,
  " curt": 9964,
  " chromosome": 9965,
  " hierarchy": 9966,
  " confident": 9967,
  "New": 9968,
  "source": 9969,
  "/(-": 9970,
  " diffusion": 9971,
  " printed": 9972,
  " carrier": 9973,
  " phenomena": 9974,
  " Pythagorean": 9975,
  "cols": 9976,
  " aldehyde": 9977,
  " biological": 9978,
  " vibration": 9979,
  " meso": 9980,
  " Taylor": 9981,
  " Chr": 9982,
  " goats": 9983,
  "176": 9984,
  " reasonable": 9985,
  "Fifth": 9986,
  " Volume": 9987,
  " months": 9988,
  " Green": 9989,
  " 700": 9990,
  " exits": 9991,
  "Apply": 9992,
  " pix": 9993,
  " daughter": 9994,
  " stripes": 9995,
  " vowels": 9996,
  " bicli": 9997,
  "pointer": 9998,
  " ft": 9999,
  "numerator": 10000,
  "dent": 10001,
  "anth": 10002,
  " crystall": 10003,
  "bmod": 10004,
  "icking": 10005,
  "player": 10006,
  " orderings": 10007,
  "mbol": 10008,
  " '+',": 10009,
  " monitors": 10010,
  " button": 10011,
  "\n\n                                            ": 10012,
  "along": 10013,
  " soon": 10014,
  "De": 10015,
  " \\)-": 10016,
  " argue": 10017,
  " exposed": 10018,
  "shell": 10019,
  " assumptions": 10020,
  " 170": 10021,
  "etch": 10022,
  "omm": 10023,
  " resultant": 10024,
  "577": 10025,
  " Kelvin": 10026,
  " plots": 10027,
  " 333": 10028,
  " fan": 10029,
  " lepton": 10030,
  " nearby": 10031,
  " grade": 10032,
  " asteris": 10033,
  " birds": 10034,
  " serum": 10035,
  " checkpoint": 10036,
  "Our": 10037,
  "Sorted": 10038,
  " sudden": 10039,
  " 450": 10040,
  "106": 10041,
  " classification": 10042,
  "med": 10043,
  " diagonally": 10044,
  "imed": 10045,
  " $$\\": 10046,
  " truncated": 10047,
  " SAM": 10048,
  " Lim": 10049,
  " Bj": 10050,
  "uine": 10051,
  " protonated": 10052,
  " LCP": 10053,
  " Balogh": 10054,
  " life": 10055,
  "heduling": 10056,
  " nutri": 10057,
  " Broglie": 10058,
  " Cent": 10059,
  " enzymes": 10060,
  " additions": 10061,
  " hol": 10062,
  "thale": 10063,
  " week": 10064,
  " inductive": 10065,
  " {'": 10066,
  " vault": 10067,
  "sile": 10068,
  "+]": 10069,
  " telescop": 10070,
  "><": 10071,
  " beetle": 10072,
  " denat": 10073,
  "ermost": 10074,
  " dict": 10075,
  "aj": 10076,
  "already": 10077,
  "147": 10078,
  " null": 10079,
  "unknown": 10080,
  " restricted": 10081,
  " Assume": 10082,
  "304": 10083,
  "mplex": 10084,
  " criteria": 10085,
  "effective": 10086,
  " opponents": 10087,
  "pler": 10088,
  "175": 10089,
  " LOG": 10090,
  "ova": 10091,
  " AG": 10092,
  " staves": 10093,
  " repetition": 10094,
  "ugg": 10095,
  "$\\": 10096,
  "PB": 10097,
  " SCC": 10098,
  "ker": 10099,
  " explo": 10100,
  " Track": 10101,
  "inity": 10102,
  " tran": 10103,
  " arguments": 10104,
  " translated": 10105,
  "lep": 10106,
  "bridge": 10107,
  "enario": 10108,
  " cosines": 10109,
  " purch": 10110,
  "Multiples": 10111,
  " Bernardo": 10112,
  " ben": 10113,
  " ACB": 10114,
  " Hawking": 10115,
  " meals": 10116,
  " Repeat": 10117,
  " allocated": 10118,
  "1995": 10119,
  " antipart": 10120,
  " appends": 10121,
  " sitting": 10122,
  "actions": 10123,
  "ddy": 10124,
  " induces": 10125,
  " harder": 10126,
  " Array": 10127,
  " tetrahedral": 10128,
  " \"?": 10129,
  " drive": 10130,
  "ript": 10131,
  "True": 10132,
  " calcium": 10133,
  " Americ": 10134,
  " CN": 10135,
  "symbol": 10136,
  " phon": 10137,
  " Sil": 10138,
  " backlight": 10139,
  " oriented": 10140,
  "Rearranged": 10141,
  " particularly": 10142,
  " redistribute": 10143,
  " scattered": 10144,
  " rx": 10145,
  " Hydro": 10146,
  "ABCD": 10147,
  " insects": 10148,
  " contro": 10149,
  " antenn": 10150,
  "shape": 10151,
  " communic": 10152,
  " Mak": 10153,
  "://": 10154,
  "factors": 10155,
  " companies": 10156,
  " infection": 10157,
  " bulbs": 10158,
  "GG": 10159,
  "iewers": 10160,
  " hashes": 10161,
  " survive": 10162,
  "Int": 10163,
  " focuses": 10164,
  " Factor": 10165,
  "idity": 10166,
  " Av": 10167,
  " Summing": 10168,
  " ry": 10169,
  " dB": 10170,
  "910": 10171,
  " ∝": 10172,
  " secre": 10173,
  " Three": 10174,
  " astero": 10175,
  "rict": 10176,
  "kin": 10177,
  "desc": 10178,
  "vol": 10179,
  "actic": 10180,
  " sinks": 10181,
  "bius": 10182,
  "masks": 10183,
  " clamp": 10184,
  "022": 10185,
  " 001": 10186,
  " cores": 10187,
  "\n                  ": 10188,
  " comoving": 10189,
  "9049": 10190,
  "Split": 10191,
  " Mid": 10192,
  "itud": 10193,
  "itudinal": 10194,
  " (+": 10195,
  " 82": 10196,
  "overs": 10197,
  " correl": 10198,
  " ID": 10199,
  " hollow": 10200,
  "period": 10201,
  " aligning": 10202,
  " Lap": 10203,
  " offer": 10204,
  " couldn": 10205,
  " gy": 10206,
  ")^(-": 10207,
  "243": 10208,
  " cable": 10209,
  "RR": 10210,
  "oust": 10211,
  " bands": 10212,
  "izer": 10213,
  " PO": 10214,
  " Grassmann": 10215,
  " chairs": 10216,
  " Sat": 10217,
  "206": 10218,
  " accelerometer": 10219,
  " strugg": 10220,
  " Moreover": 10221,
  " slide": 10222,
  " (**": 10223,
  " scheduling": 10224,
  "magine": 10225,
  " enumer": 10226,
  " hints": 10227,
  " equip": 10228,
  "}\\):": 10229,
  " monotonic": 10230,
  " DF": 10231,
  " advantage": 10232,
  "neighbor": 10233,
  "})^{": 10234,
  " lightning": 10235,
  " meetings": 10236,
  "valu": 10237,
  "none": 10238,
  "do": 10239,
  " dioxide": 10240,
  "[\\": 10241,
  " synthesis": 10242,
  " inconsistency": 10243,
  "domin": 10244,
  " 166": 10245,
  " psi": 10246,
  " submatrix": 10247,
  "ircle": 10248,
  " 2006": 10249,
  " parallelep": 10250,
  " deflection": 10251,
  " chocol": 10252,
  " Mar": 10253,
  " brick": 10254,
  " Katie": 10255,
  " expressing": 10256,
  " [&": 10257,
  " exhaust": 10258,
  "BA": 10259,
  "Edges": 10260,
  " Vert": 10261,
  " suscept": 10262,
  " Taking": 10263,
  " Lar": 10264,
  "163": 10265,
  " sketch": 10266,
  " software": 10267,
  " metallic": 10268,
  "overlap": 10269,
  " pain": 10270,
  "3000": 10271,
  " isomers": 10272,
  "Ang": 10273,
  "181": 10274,
  " discontinuity": 10275,
  "2011": 10276,
  " ka": 10277,
  " microstates": 10278,
  " hate": 10279,
  "numbered": 10280,
  "EC": 10281,
  "uitive": 10282,
  " modern": 10283,
  " Boh": 10284,
  " chlorine": 10285,
  "anger": 10286,
  " continuity": 10287,
  " trios": 10288,
  "odds": 10289,
  " death": 10290,
  " showed": 10291,
  " focusing": 10292,
  " ['": 10293,
  " Pb": 10294,
  " meta": 10295,
  "6666": 10296,
  "boldsymbol": 10297,
  " lc": 10298,
  "]_": 10299,
  " cann": 10300,
  " (>=": 10301,
  "674": 10302,
  " ¬": 10303,
  "terior": 10304,
  "280": 10305,
  " slip": 10306,
  " wat": 10307,
  " multiplicity": 10308,
  "this": 10309,
  "rared": 10310,
  "loop": 10311,
  "ita": 10312,
  " Gal": 10313,
  "rose": 10314,
  " spherically": 10315,
  "vae": 10316,
  "egend": 10317,
  "499": 10318,
  " spark": 10319,
  " goals": 10320,
  " %=": 10321,
  " factoriz": 10322,
  "ister": 10323,
  "magn": 10324,
  "oules": 10325,
  "ilk": 10326,
  " liquids": 10327,
  " interpreted": 10328,
  " evol": 10329,
  " movements": 10330,
  " join": 10331,
  " Red": 10332,
  " frust": 10333,
  " injective": 10334,
  "990": 10335,
  " conjugation": 10336,
  "1009": 10337,
  "fo": 10338,
  " continuously": 10339,
  "PR": 10340,
  " inha": 10341,
  "tg": 10342,
  "ranges": 10343,
  " genuine": 10344,
  "airness": 10345,
  " couple": 10346,
  "specific": 10347,
  " denoting": 10348,
  " explore": 10349,
  " gravit": 10350,
  " resource": 10351,
  "}?": 10352,
  " builds": 10353,
  " Eulerian": 10354,
  " reagent": 10355,
  "character": 10356,
  " luminosity": 10357,
  "irror": 10358,
  "dec": 10359,
  " Oly": 10360,
  "illi": 10361,
  "egendre": 10362,
  " BK": 10363,
  " packages": 10364,
  " Contin": 10365,
  "\\{": 10366,
  "Se": 10367,
  "cells": 10368,
  " sequential": 10369,
  "idation": 10370,
  "PM": 10371,
  " Test": 10372,
  " vac": 10373,
  " mgh": 10374,
  " participant": 10375,
  " trou": 10376,
  " dwar": 10377,
  "₁₀": 10378,
  "oph": 10379,
  " 196": 10380,
  " nice": 10381,
  " factoring": 10382,
  " appropriately": 10383,
  "aught": 10384,
  " Rearr": 10385,
  " online": 10386,
  "231": 10387,
  " preserves": 10388,
  "Per": 10389,
  "capitals": 10390,
  "wind": 10391,
  "surface": 10392,
  "hydrogen": 10393,
  "False": 10394,
  " sup": 10395,
  "xygen": 10396,
  " anom": 10397,
  " ops": 10398,
  " Bs": 10399,
  " skates": 10400,
  " bowls": 10401,
  "ula": 10402,
  " viscous": 10403,
  " rotor": 10404,
  " mouth": 10405,
  "iles": 10406,
  "major": 10407,
  "ervation": 10408,
  "mb": 10409,
  " environments": 10410,
  "Rem": 10411,
  " ult": 10412,
  "intersect": 10413,
  " feature": 10414,
  " hear": 10415,
  " braking": 10416,
  " burles": 10417,
  " confined": 10418,
  "uction": 10419,
  " accelerations": 10420,
  " 181": 10421,
  "ithe": 10422,
  "DM": 10423,
  "iro": 10424,
  "fas": 10425,
  " iv": 10426,
  " Temp": 10427,
  " Round": 10428,
  " Ray": 10429,
  " biology": 10430,
  "uce": 10431,
  " Sample": 10432,
  " generalized": 10433,
  "Product": 10434,
  " blow": 10435,
  " cc": 10436,
  " neur": 10437,
  " 625": 10438,
  " stretched": 10439,
  " ruler": 10440,
  " surroundings": 10441,
  " Ivan": 10442,
  " CG": 10443,
  " ⊗": 10444,
  "oulli": 10445,
  " bandwidth": 10446,
  " centimeters": 10447,
  " went": 10448,
  " cust": 10449,
  " positively": 10450,
  " stiffness": 10451,
  " redistribution": 10452,
  " Remainder": 10453,
  "00000": 10454,
  " Rh": 10455,
  " live": 10456,
  " Bang": 10457,
  " ST": 10458,
  " Kepler": 10459,
  " FFT": 10460,
  " pin": 10461,
  " fragments": 10462,
  " cycl": 10463,
  " document": 10464,
  " Π": 10465,
  "Ste": 10466,
  " modeling": 10467,
  " underlying": 10468,
  " facil": 10469,
  " cam": 10470,
  " [&](": 10471,
  "Min": 10472,
  ")\\):": 10473,
  "pen": 10474,
  "volume": 10475,
  " approximations": 10476,
  " ...)": 10477,
  "ares": 10478,
  " resolved": 10479,
  "sius": 10480,
  " agree": 10481,
  " slant": 10482,
  "init": 10483,
  " auth": 10484,
  " translates": 10485,
  "four": 10486,
  " 119": 10487,
  " mistaken": 10488,
  " anticomm": 10489,
  " synthetic": 10490,
  " flex": 10491,
  "avy": 10492,
  "),(": 10493,
  "intercept": 10494,
  " feed": 10495,
  " respiration": 10496,
  " }{": 10497,
  "cence": 10498,
  "momentum": 10499,
  " candy": 10500,
  " orth": 10501,
  "Result": 10502,
  "hilic": 10503,
  " occurred": 10504,
  " moduli": 10505,
  "ancestor": 10506,
  " Phys": 10507,
  " safely": 10508,
  " Replace": 10509,
  " stabilize": 10510,
  "330": 10511,
  " cosx": 10512,
  " anisot": 10513,
  "density": 10514,
  " 169": 10515,
  "114": 10516,
  " lcm": 10517,
  " 11111": 10518,
  "link": 10519,
  " trump": 10520,
  " Chanek": 10521,
  " apartments": 10522,
  "around": 10523,
  " environmental": 10524,
  " prefe": 10525,
  " bubble": 10526,
  " mutually": 10527,
  " strat": 10528,
  "atm": 10529,
  " redox": 10530,
  "erve": 10531,
  " rephrase": 10532,
  " experienced": 10533,
  " antine": 10534,
  " resistivity": 10535,
  "kh": 10536,
  " flying": 10537,
  "115": 10538,
  " arbitrarily": 10539,
  "ann": 10540,
  "changes": 10541,
  "\n         ": 10542,
  " rocks": 10543,
  " emf": 10544,
  " MR": 10545,
  " ppm": 10546,
  " castle": 10547,
  " cannons": 10548,
  ")],": 10549,
  "6²": 10550,
  " Either": 10551,
  " US": 10552,
  " recombination": 10553,
  " seed": 10554,
  "`.": 10555,
  "DFS": 10556,
  " respond": 10557,
  " islands": 10558,
  " young": 10559,
  "hood": 10560,
  "  \n    ": 10561,
  " supplement": 10562,
  " rearranging": 10563,
  " complexes": 10564,
  "adam": 10565,
  " tissue": 10566,
  "alan": 10567,
  "adjusted": 10568,
  "го": 10569,
  " token": 10570,
  " miles": 10571,
  " door": 10572,
  " summoning": 10573,
  "---": 10574,
  "...\",": 10575,
  "Analyzing": 10576,
  " naive": 10577,
  " propagating": 10578,
  " told": 10579,
  "eness": 10580,
  " dV": 10581,
  " kill": 10582,
  " radicals": 10583,
  " reasons": 10584,
  "fold": 10585,
  "432": 10586,
  "ster": 10587,
  " raw": 10588,
  " electrolysis": 10589,
  "adamard": 10590,
  "ervative": 10591,
  "transition": 10592,
  "≡-": 10593,
  "XY": 10594,
  " '<',": 10595,
  " hi": 10596,
  " sweets": 10597,
  "ushro": 10598,
  " fused": 10599,
  "ulsion": 10600,
  " Magnetic": 10601,
  "wered": 10602,
  "bic": 10603,
  " ds": 10604,
  "ds": 10605,
  "average": 10606,
  " fluorine": 10607,
  " recorded": 10608,
  "removal": 10609,
  " topmost": 10610,
  "0625": 10611,
  " dies": 10612,
  " acetone": 10613,
  " evaluating": 10614,
  " singularity": 10615,
  " aa": 10616,
  " exitable": 10617,
  " bridgehead": 10618,
  "hs": 10619,
  "pie": 10620,
  " actor": 10621,
  "]):": 10622,
  "ynamics": 10623,
  "чи": 10624,
  " viable": 10625,
  " Ext": 10626,
  " throw": 10627,
  " heur": 10628,
  " sufficiently": 10629,
  " female": 10630,
  "270": 10631,
  " zone": 10632,
  " named": 10633,
  "LCM": 10634,
  "321": 10635,
  " protection": 10636,
  " avoiding": 10637,
  " electroly": 10638,
  " pocket": 10639,
  "113": 10640,
  " 255": 10641,
  " secant": 10642,
  " prisms": 10643,
  " arriving": 10644,
  "需要": 10645,
  "SE": 10646,
  " behaves": 10647,
  " longitudinal": 10648,
  " consistency": 10649,
  " oce": 10650,
  " Task": 10651,
  " nucleophile": 10652,
  " freezing": 10653,
  "ache": 10654,
  " behave": 10655,
  "sun": 10656,
  " dropped": 10657,
  " folds": 10658,
  " qr": 10659,
  "vices": 10660,
  " prepare": 10661,
  "ubes": 10662,
  " zx": 10663,
  "sk": 10664,
  " NAD": 10665,
  " trips": 10666,
  " paramagnetic": 10667,
  "mps": 10668,
  " carryover": 10669,
  " lake": 10670,
  " sofas": 10671,
  "gins": 10672,
  " problematic": 10673,
  "Par": 10674,
  "built": 10675,
  "005": 10676,
  " 117": 10677,
  " integrated": 10678,
  " ut": 10679,
  " synchron": 10680,
  " trials": 10681,
  " dan": 10682,
  " Vieta": 10683,
  " Contribution": 10684,
  " hanging": 10685,
  " organisms": 10686,
  "142": 10687,
  " dat": 10688,
  "182": 10689,
  " hotter": 10690,
  " deli": 10691,
  "⟩⟨": 10692,
  " '-',": 10693,
  "cluster": 10694,
  " vot": 10695,
  " symmetrically": 10696,
  " на": 10697,
  " treatment": 10698,
  " Pos": 10699,
  "444": 10700,
  " painting": 10701,
  "parents": 10702,
  " Gravitational": 10703,
  "Plugging": 10704,
  "997": 10705,
  "\\%": 10706,
  "4096": 10707,
  " substitutions": 10708,
  " quas": 10709,
  " Fermat": 10710,
  " isotope": 10711,
  "wi": 10712,
  " fibers": 10713,
  " dissolution": 10714,
  " spinors": 10715,
  "eur": 10716,
  "NDS": 10717,
  " ware": 10718,
  "shops": 10719,
  " transf": 10720,
  " tensors": 10721,
  "test": 10722,
  "given": 10723,
  " Over": 10724,
  " prem": 10725,
  " reliable": 10726,
  "350": 10727,
  "hemistry": 10728,
  "\n            \n           ": 10729,
  " locked": 10730,
  "utoff": 10731,
  "multiplying": 10732,
  " Gravity": 10733,
  "Part": 10734,
  " describing": 10735,
  " native": 10736,
  "693": 10737,
  " distortion": 10738,
  "155": 10739,
  " oscillate": 10740,
  "ishable": 10741,
  "Index": 10742,
  "на": 10743,
  "cba": 10744,
  " volta": 10745,
  " Bernoulli": 10746,
  " lap": 10747,
  " heapq": 10748,
  "butyl": 10749,
  " morning": 10750,
  " buttons": 10751,
  " Bonn": 10752,
  "ractical": 10753,
  "Equ": 10754,
  "Round": 10755,
  " alternately": 10756,
  " ;": 10757,
  " formalism": 10758,
  " directional": 10759,
  "]'": 10760,
  " microw": 10761,
  "elif": 10762,
  " circulation": 10763,
  " evenly": 10764,
  "anya": 10765,
  " colon": 10766,
  "eon": 10767,
  "UG": 10768,
  "odor": 10769,
  " steric": 10770,
  "px": 10771,
  " erg": 10772,
  " pictures": 10773,
  "Setting": 10774,
  " Could": 10775,
  "675": 10776,
  " Force": 10777,
  "656": 10778,
  "{~": 10779,
  " treap": 10780,
  " benz": 10781,
  "154": 10782,
  "lug": 10783,
  "5536": 10784,
  "imulate": 10785,
  " recol": 10786,
  "ooke": 10787,
  " Mi": 10788,
  " fiber": 10789,
  " MC": 10790,
  " transparent": 10791,
  ":-": 10792,
  "loyee": 10793,
  " gray": 10794,
  "ittivity": 10795,
  "во": 10796,
  " generations": 10797,
  "mA": 10798,
  " candles": 10799,
  " erased": 10800,
  " regener": 10801,
  " eating": 10802,
  " biggerA": 10803,
  " caffeine": 10804,
  " semif": 10805,
  "iest": 10806,
  " Key": 10807,
  " calculator": 10808,
  " Bi": 10809,
  " heuristic": 10810,
  "mandatory": 10811,
  " hint": 10812,
  " \\((\\": 10813,
  "392": 10814,
  " arrows": 10815,
  " island": 10816,
  " tent": 10817,
  "comb": 10818,
  "opposite": 10819,
  "proj": 10820,
  " wings": 10821,
  " swing": 10822,
  "Sc": 10823,
  " treating": 10824,
  " monop": 10825,
  " sulfuric": 10826,
  " LSB": 10827,
  " chair": 10828,
  " superior": 10829,
  "ether": 10830,
  "ны": 10831,
  " spoon": 10832,
  "coeff": 10833,
  "384": 10834,
  "meth": 10835,
  " bike": 10836,
  " |+>": 10837,
  " mushro": 10838,
  " reps": 10839,
  " maxK": 10840,
  " collections": 10841,
  " fine": 10842,
  " ever": 10843,
  "Elect": 10844,
  "race": 10845,
  " slots": 10846,
  "aning": 10847,
  " astronaut": 10848,
  "prod": 10849,
  "Element": 10850,
  " Actually": 10851,
  " bell": 10852,
  "oles": 10853,
  "years": 10854,
  " ignoring": 10855,
  "Between": 10856,
  "difference": 10857,
  " reactant": 10858,
  " mentally": 10859,
  " contamin": 10860,
  " danger": 10861,
  " interpol": 10862,
  "poles": 10863,
  " obstacles": 10864,
  "WW": 10865,
  "conservative": 10866,
  " (∇": 10867,
  " fragment": 10868,
  "HA": 10869,
  " ATK": 10870,
  " outlined": 10871,
  " marking": 10872,
  "ivative": 10873,
  "zes": 10874,
  "008": 10875,
  "986": 10876,
  "leigh": 10877,
  " latter": 10878,
  "))).": 10879,
  "708": 10880,
  "ucible": 10881,
  " quotes": 10882,
  " Zn": 10883,
  " incidence": 10884,
  "688": 10885,
  " ligand": 10886,
  "ocarp": 10887,
  " eaten": 10888,
  "₁₂": 10889,
  "sender": 10890,
  " unfairness": 10891,
  " Vasily": 10892,
  " Temperature": 10893,
  " sweep": 10894,
  " phenol": 10895,
  "sient": 10896,
  "scope": 10897,
  " bars": 10898,
  "|}": 10899,
  "oras": 10900,
  "alculated": 10901,
  " Bohr": 10902,
  " histor": 10903,
  " parameterize": 10904,
  " son": 10905,
  " Class": 10906,
  " 2011": 10907,
  " ASCII": 10908,
  "ва": 10909,
  " hypo": 10910,
  "swe": 10911,
  " diode": 10912,
  " developer": 10913,
  " Vl": 10914,
  " Plus": 10915,
  "events": 10916,
  "314": 10917,
  " cosh": 10918,
  " escaping": 10919,
  " trigger": 10920,
  " 1995": 10921,
  "forms": 10922,
  "necess": 10923,
  ".).": 10924,
  " Gener": 10925,
  " preferred": 10926,
  " Every": 10927,
  " eddy": 10928,
  " precomputation": 10929,
  " OE": 10930,
  " identified": 10931,
  " solvents": 10932,
  " disrupt": 10933,
  "Discriminant": 10934,
  "cb": 10935,
  "drawing": 10936,
  " 252": 10937,
  "nj": 10938,
  "ificial": 10939,
  " dop": 10940,
  " sectors": 10941,
  " kite": 10942,
  " keV": 10943,
  "world": 10944,
  "777": 10945,
  "Upon": 10946,
  " harmful": 10947,
  " fundamentally": 10948,
  " belie": 10949,
  " sex": 10950,
  " Mass": 10951,
  " dA": 10952,
  " strips": 10953,
  " Sodium": 10954,
  "existing": 10955,
  "factor": 10956,
  " quadrants": 10957,
  "öbius": 10958,
  " pulse": 10959,
  "ym": 10960,
  " worth": 10961,
  "та": 10962,
  " Vanu": 10963,
  " dragon": 10964,
  "kov": 10965,
  "elly": 10966,
  " truck": 10967,
  " troublem": 10968,
  " breakfast": 10969,
  "acups": 10970,
  " singleton": 10971,
  " lacks": 10972,
  " 104": 10973,
  " flavor": 10974,
  " suffice": 10975,
  "960": 10976,
  " phosphorus": 10977,
  "irical": 10978,
  " retained": 10979,
  "BO": 10980,
  " definite": 10981,
  "nels": 10982,
  " deals": 10983,
  " ionized": 10984,
  "iness": 10985,
  " vibrational": 10986,
  "phe": 10987,
  " acetyl": 10988,
  " calib": 10989,
  " inhabit": 10990,
  " xs": 10991,
  "一个": 10992,
  "imatter": 10993,
  "}(\\": 10994,
  " replication": 10995,
  " EB": 10996,
  " CS": 10997,
  " answered": 10998,
  "adox": 10999,
  " holding": 11000,
  " queried": 11001,
  " nutrients": 11002,
  "}},": 11003,
  " melt": 11004,
  " \\((-": 11005,
  " Path": 11006,
  "unct": 11007,
  "inding": 11008,
  " detour": 11009,
  " tur": 11010,
  " converges": 11011,
  "ager": 11012,
  " permittivity": 11013,
  "242": 11014,
  " Beat": 11015,
  " burning": 11016,
  "648": 11017,
  "rceil": 11018,
  " shel": 11019,
  "road": 11020,
  "\n\n                                                    ": 11021,
  " pir": 11022,
  " FenwickTree": 11023,
  " disappear": 11024,
  "oric": 11025,
  " governed": 11026,
  " noting": 11027,
  " Moving": 11028,
  " wheels": 11029,
  " mv": 11030,
  "401": 11031,
  "asis": 11032,
  "rone": 11033,
  " unprocessed": 11034,
  " lookups": 11035,
  "Rightarrow": 11036,
  "benzene": 11037,
  " cutoff": 11038,
  "evens": 11039,
  " COOH": 11040,
  "words": 11041,
  " Jac": 11042,
  "osite": 11043,
  "ем": 11044,
  "urable": 11045,
  " parallelepiped": 11046,
  " Legendre": 11047,
  " voltages": 11048,
  "bodies": 11049,
  "aca": 11050,
  "lceil": 11051,
  " ys": 11052,
  " hydride": 11053,
  "可以": 11054,
  " teacups": 11055,
  "isons": 11056,
  " \\)**": 11057,
  " exerted": 11058,
  "ention": 11059,
  "crease": 11060,
  "ram": 11061,
  " Som": 11062,
  "Rever": 11063,
  "highest": 11064,
  " antineutrino": 11065,
  " Close": 11066,
  "medium": 11067,
  " worked": 11068,
  " [[]": 11069,
  " cycloprop": 11070,
  "ital": 11071,
  " isomer": 11072,
  " fav": 11073,
  " socket": 11074,
  " salts": 11075,
  " Ohm": 11076,
  " nb": 11077,
  " 4000": 11078,
  " 1997": 11079,
  "DE": 11080,
  " hind": 11081,
  " stool": 11082,
  " viruses": 11083,
  " guards": 11084,
  " wedge": 11085,
  "ddot": 11086,
  "lafl": 11087,
  "laflot": 11088,
  " pK": 11089,
  " Checking": 11090,
  " supporting": 11091,
  "relative": 11092,
  " exposure": 11093,
  "osphate": 11094,
  " treasure": 11095,
  " BST": 11096,
  " outputting": 11097,
  " cancellation": 11098,
  "$$.": 11099,
  "529": 11100,
  " 224": 11101,
  " peroxide": 11102,
  " boron": 11103,
  " Direct": 11104,
  "Me": 11105,
  "\n\n                             ": 11106,
  " converge": 11107,
  " localized": 11108,
  " Gib": 11109,
  " formatting": 11110,
  "sivity": 11111,
  " asterisks": 11112,
  "butane": 11113,
  " Kp": 11114,
  " protections": 11115,
  " acyclic": 11116,
  "Indices": 11117,
  " transfers": 11118,
  " princess": 11119,
  "Actually": 11120,
  "AP": 11121,
  " timelike": 11122,
  " maximums": 11123,
  "distinct": 11124,
  " satellites": 11125,
  "icting": 11126,
  "adiene": 11127,
  " sharp": 11128,
  " Poinc": 11129,
  " scored": 11130,
  " 420": 11131,
  " shares": 11132,
  " Möbius": 11133,
  "SY": 11134,
  " fb": 11135,
  " figs": 11136,
  "OF": 11137,
  "Earlier": 11138,
  " differentiate": 11139,
  " roles": 11140,
  " singlet": 11141,
  " Integ": 11142,
  " Comparing": 11143,
  "*,": 11144,
  "common": 11145,
  "Even": 11146,
  " SR": 11147,
  " rotates": 11148,
  "jected": 11149,
  " shiny": 11150,
  " appar": 11151,
  " apparatus": 11152,
  " 1011": 11153,
  " Vova": 11154,
  " Mach": 11155,
  " lights": 11156,
  " |->": 11157,
  "或者": 11158,
  " checkpoints": 11159,
  " Inde": 11160,
  " gram": 11161,
  "During": 11162,
  " retain": 11163,
  " interleaved": 11164,
  " unsigned": 11165,
  " degrad": 11166,
  "eresting": 11167,
  " attract": 11168,
  "833": 11169,
  " tax": 11170,
  " orbiting": 11171,
  "inement": 11172,
  " sealed": 11173,
[...]
